#ifndef TRANSPOSE_MODEL
#define TRANSPOSE_MODEL
#define INPUT_LENGTH 4*4
#define MODEL_LENGTH 10680
unsigned char input_data[4*4] = {0};
unsigned char model_data[10688] = {
    0x24, 0x00, 0x00, 0x00, 0x54, 0x46, 0x4c, 0x33, 0x00, 0x00, 0x00, 0x00,
    0x00, 0x00, 0x00, 0x00, 0x00, 0x00, 0x12, 0x00, 0x1c, 0x00, 0x18, 0x00,
    0x14, 0x00, 0x10, 0x00, 0x0c, 0x00, 0x08, 0x00, 0x00, 0x00, 0x04, 0x00,
    0x12, 0x00, 0x00, 0x00, 0x18, 0x00, 0x00, 0x00, 0x70, 0x00, 0x00, 0x00,
    0x44, 0x29, 0x00, 0x00, 0x00, 0x25, 0x00, 0x00, 0x58, 0x29, 0x00, 0x00,
    0x03, 0x00, 0x00, 0x00, 0x02, 0x00, 0x00, 0x00, 0x38, 0x00, 0x00, 0x00,
    0x04, 0x00, 0x00, 0x00, 0xd8, 0xff, 0xff, 0xff, 0x04, 0x00, 0x00, 0x00,
    0x04, 0x00, 0x00, 0x00, 0x17, 0x00, 0x00, 0x00, 0x4f, 0x66, 0x66, 0x6c,
    0x69, 0x6e, 0x65, 0x4d, 0x65, 0x6d, 0x6f, 0x72, 0x79, 0x41, 0x6c, 0x6c,
    0x6f, 0x63, 0x61, 0x74, 0x69, 0x6f, 0x6e, 0x00, 0x08, 0x00, 0x0c, 0x00,
    0x08, 0x00, 0x04, 0x00, 0x08, 0x00, 0x00, 0x00, 0x03, 0x00, 0x00, 0x00,
    0x04, 0x00, 0x00, 0x00, 0x0c, 0x00, 0x00, 0x00, 0x76, 0x65, 0x6c, 0x61,
    0x5f, 0x76, 0x65, 0x72, 0x73, 0x69, 0x6f, 0x6e, 0x00, 0x00, 0x00, 0x00,
    0x05, 0x00, 0x00, 0x00, 0x90, 0x24, 0x00, 0x00, 0x00, 0x23, 0x00, 0x00,
    0x6c, 0x00, 0x00, 0x00, 0x48, 0x00, 0x00, 0x00, 0x04, 0x00, 0x00, 0x00,
    0x16, 0xdd, 0xff, 0xff, 0x04, 0x00, 0x00, 0x00, 0x28, 0x00, 0x00, 0x00,
    0x00, 0x00, 0x00, 0x00, 0x01, 0x00, 0x00, 0x00, 0x07, 0x00, 0x00, 0x00,
    0xff, 0xff, 0xff, 0xff, 0xff, 0xff, 0xff, 0xff, 0x00, 0x00, 0x00, 0x00,
    0x00, 0x00, 0x00, 0x00, 0x00, 0x00, 0x00, 0x00, 0x10, 0x0a, 0x00, 0x00,
    0x00, 0x0a, 0x00, 0x00, 0x00, 0x00, 0x00, 0x00, 0x00, 0x00, 0x00, 0x00,
    0x00, 0x00, 0x00, 0x00, 0x56, 0xdd, 0xff, 0xff, 0x04, 0x00, 0x00, 0x00,
    0x06, 0x00, 0x00, 0x00, 0x33, 0x2e, 0x31, 0x32, 0x2e, 0x30, 0x00, 0x00,
    0x00, 0x00, 0x00, 0x00, 0x00, 0x00, 0x00, 0x00, 0x00, 0x00, 0x00, 0x00,
    0x76, 0xdd, 0xff, 0xff, 0x04, 0x00, 0x00, 0x00, 0x70, 0x22, 0x00, 0x00,
    0x00, 0x00, 0x00, 0x00, 0x00, 0x00, 0x00, 0x00, 0x00, 0x00, 0x00, 0x00,
    0x00, 0x00, 0x00, 0x00, 0x00, 0x00, 0x00, 0x00, 0x00, 0x00, 0x00, 0x00,
    0x00, 0x00, 0x00, 0x00, 0x00, 0x00, 0x00, 0x00, 0x00, 0x00, 0x00, 0x00,
    0x00, 0x00, 0x00, 0x00, 0x00, 0x00, 0x00, 0x00, 0x00, 0x00, 0x00, 0x00,
    0x00, 0x00, 0x00, 0x00, 0x00, 0x00, 0x00, 0x00, 0x00, 0x00, 0x00, 0x00,
    0x00, 0x00, 0x00, 0x00, 0x00, 0x00, 0x00, 0x00, 0x00, 0x00, 0x00, 0x00,
    0x00, 0x00, 0x00, 0x00, 0x00, 0x00, 0x00, 0x00, 0x00, 0x00, 0x00, 0x00,
    0x00, 0x00, 0x00, 0x00, 0x00, 0x00, 0x00, 0x00, 0x00, 0x00, 0x00, 0x00,
    0x00, 0x00, 0x00, 0x00, 0x00, 0x00, 0x00, 0x00, 0x00, 0x00, 0x00, 0x00,
    0x00, 0x00, 0x00, 0x00, 0x00, 0x00, 0x00, 0x00, 0x00, 0x00, 0x00, 0x00,
    0x00, 0x00, 0x00, 0x00, 0x00, 0x00, 0x00, 0x00, 0x00, 0x00, 0x00, 0x00,
    0x00, 0x00, 0x00, 0x00, 0x00, 0x00, 0x00, 0x00, 0x00, 0x00, 0x00, 0x00,
    0x00, 0x00, 0x00, 0x00, 0x00, 0x00, 0x00, 0x00, 0x00, 0x00, 0x00, 0x00,
    0x00, 0x00, 0x00, 0x00, 0x54, 0xf8, 0xff, 0xff, 0xff, 0x0d, 0x5a, 0x00,
    0x00, 0x16, 0x42, 0xfe, 0xff, 0xff, 0xff, 0x9a, 0x6c, 0x00, 0x00, 0x16,
    0x9d, 0xf1, 0xff, 0xff, 0xff, 0xf5, 0x4d, 0x00, 0x00, 0x16, 0xf9, 0xfc,
    0xff, 0xff, 0xff, 0xa4, 0x5f, 0x00, 0x00, 0x16, 0xec, 0xf9, 0xff, 0xff,
    0xff, 0x42, 0x6c, 0x00, 0x00, 0x16, 0x3c, 0xfa, 0xff, 0xff, 0xff, 0x93,
    0x6e, 0x00, 0x00, 0x16, 0xc1, 0xfb, 0xff, 0xff, 0xff, 0x54, 0x7c, 0x00,
    0x00, 0x17, 0xdc, 0xfd, 0xff, 0xff, 0xff, 0xf8, 0x54, 0x00, 0x00, 0x16,
    0x25, 0xfb, 0xff, 0xff, 0xff, 0x48, 0x67, 0x00, 0x00, 0x16, 0xd4, 0x00,
    0x00, 0x00, 0x00, 0x65, 0x7a, 0x00, 0x00, 0x16, 0x69, 0xfc, 0xff, 0xff,
    0xff, 0xfc, 0x53, 0x00, 0x00, 0x16, 0xa3, 0x03, 0x00, 0x00, 0x00, 0x37,
    0x61, 0x00, 0x00, 0x17, 0x1e, 0xfd, 0xff, 0xff, 0xff, 0x36, 0x51, 0x00,
    0x00, 0x16, 0xa0, 0xfe, 0xff, 0xff, 0xff, 0x96, 0x56, 0x00, 0x00, 0x16,
    0xd4, 0xfe, 0xff, 0xff, 0xff, 0x68, 0x6c, 0x00, 0x00, 0x16, 0x12, 0xfc,
    0xff, 0xff, 0xff, 0x41, 0x50, 0x00, 0x00, 0x16, 0xae, 0x1c, 0x54, 0x00,
    0xbe, 0xc4, 0xbf, 0xf3, 0xfc, 0xc6, 0x55, 0x0f, 0xb3, 0x7e, 0x7f, 0x6d,
    0x36, 0x93, 0x85, 0x79, 0x83, 0x3b, 0xc5, 0x14, 0x16, 0xb0, 0x7f, 0x2e,
    0x82, 0x52, 0x21, 0x64, 0x3d, 0x9f, 0x08, 0x46, 0x11, 0xb4, 0x84, 0xef,
    0xf1, 0x81, 0x89, 0x1e, 0xea, 0x6e, 0xb7, 0x96, 0x4f, 0x20, 0xd4, 0x06,
    0x0a, 0xdf, 0x66, 0x11, 0x5d, 0x05, 0xc7, 0xbe, 0x9f, 0x4f, 0x28, 0xc7,
    0xa6, 0x90, 0xb7, 0xbe, 0x7e, 0xaa, 0x3e, 0x9e, 0xc0, 0xdf, 0xdd, 0x2e,
    0xaa, 0x98, 0xf1, 0xfc, 0xbe, 0x5e, 0xdc, 0x15, 0xb0, 0xf1, 0x26, 0x15,
    0x92, 0x55, 0xc7, 0xbd, 0xff, 0x89, 0xf8, 0x29, 0x48, 0xff, 0xce, 0xfe,
    0x67, 0x80, 0xe1, 0xec, 0x5d, 0x97, 0x5f, 0xb6, 0xf5, 0x3d, 0x78, 0x07,
    0x65, 0xe3, 0x16, 0xfb, 0xff, 0x6b, 0x87, 0x41, 0xa4, 0x54, 0xa1, 0xea,
    0x0f, 0xf7, 0xba, 0xd8, 0xf9, 0x7c, 0xc5, 0x50, 0x06, 0x0b, 0x6a, 0x6c,
    0x7e, 0x11, 0xab, 0x80, 0xad, 0xfb, 0x2f, 0x27, 0xef, 0x5d, 0x41, 0x41,
    0xea, 0xa7, 0x6b, 0x3f, 0x10, 0xcd, 0x8f, 0xfd, 0x30, 0x17, 0x33, 0x0d,
    0xff, 0x7a, 0xbc, 0x1a, 0x46, 0xf5, 0xdf, 0xdc, 0xff, 0x77, 0x68, 0x5a,
    0xdf, 0xef, 0x63, 0xfb, 0xef, 0x68, 0xcd, 0x3b, 0xda, 0xd4, 0xaa, 0xf8,
    0xde, 0x7d, 0x0f, 0x49, 0x90, 0x63, 0xdf, 0x4b, 0x7b, 0x9b, 0x3f, 0x43,
    0x32, 0x94, 0xfe, 0xd9, 0x12, 0x64, 0xe1, 0xff, 0x54, 0x7f, 0xa1, 0x9f,
    0x05, 0xa1, 0x21, 0xa0, 0x19, 0xd3, 0x11, 0x64, 0xb8, 0x7f, 0xd5, 0x41,
    0x90, 0x63, 0x08, 0x76, 0x66, 0x92, 0xff, 0xb5, 0x85, 0x0e, 0x9d, 0xff,
    0xee, 0x76, 0x53, 0xdd, 0x67, 0xef, 0x7f, 0xf6, 0x11, 0xd2, 0x4f, 0xcd,
    0xeb, 0x3b, 0x43, 0x3a, 0x77, 0xb9, 0x93, 0x51, 0x14, 0x44, 0xea, 0xa5,
    0x7b, 0xa0, 0x25, 0x5d, 0x90, 0x7d, 0xf7, 0xde, 0x40, 0x77, 0x71, 0x87,
    0xb5, 0x61, 0x87, 0x95, 0x2b, 0x87, 0x6f, 0x3c, 0xec, 0x62, 0x42, 0x50,
    0xe8, 0x7e, 0x0f, 0xe9, 0x1a, 0xad, 0x6c, 0x8e, 0x38, 0xa6, 0xa0, 0x28,
    0x91, 0x00, 0xec, 0x03, 0x22, 0xe1, 0x07, 0x81, 0x02, 0xc9, 0x30, 0x4c,
    0x8c, 0x0b, 0x32, 0x28, 0x37, 0xdc, 0xfd, 0xef, 0x17, 0xc1, 0x27, 0x09,
    0x09, 0xac, 0xf5, 0xff, 0xb9, 0x78, 0x77, 0x03, 0xfe, 0x6e, 0xab, 0x87,
    0xef, 0xb0, 0x5f, 0x0a, 0x09, 0x83, 0x48, 0x9a, 0xcc, 0xbe, 0xae, 0x9e,
    0x94, 0x7b, 0x8f, 0x99, 0x5a, 0x91, 0x93, 0x5d, 0x60, 0xe7, 0xff, 0x30,
    0x0f, 0x5a, 0xe9, 0xb0, 0xbd, 0x75, 0x09, 0x27, 0xa9, 0x5e, 0x6d, 0x74,
    0xb3, 0xab, 0xe6, 0x31, 0xf7, 0x4b, 0xf6, 0x76, 0x4e, 0x11, 0xb1, 0xd0,
    0xff, 0xb4, 0x6d, 0x95, 0xaa, 0x23, 0x56, 0xd8, 0xed, 0xfe, 0xc4, 0x91,
    0x5c, 0xf3, 0xdb, 0x7b, 0xb6, 0x42, 0x1b, 0x7e, 0xba, 0xbb, 0x16, 0x46,
    0x35, 0x7f, 0xfb, 0x58, 0xb2, 0x46, 0x32, 0x09, 0xff, 0xef, 0x5a, 0xf6,
    0x82, 0x5f, 0x9c, 0xfb, 0xdb, 0x26, 0xe0, 0x54, 0xde, 0xf6, 0xdf, 0x6d,
    0xc3, 0xe8, 0x27, 0xec, 0x7a, 0xfb, 0x10, 0x7e, 0x82, 0xff, 0xf6, 0x43,
    0xce, 0x9c, 0xe7, 0xe6, 0x9f, 0x89, 0x42, 0x6f, 0xdc, 0xd3, 0x5d, 0x8b,
    0x28, 0xee, 0xad, 0xf3, 0x8f, 0x72, 0x33, 0x2b, 0xbd, 0xe3, 0x2e, 0x5f,
    0x0f, 0x83, 0xe7, 0xed, 0xc2, 0x0a, 0x2f, 0xc8, 0xb7, 0xb9, 0xf2, 0x7f,
    0x3e, 0xe4, 0xac, 0x27, 0x5e, 0x99, 0x34, 0x94, 0x48, 0xf6, 0xf8, 0x6b,
    0x77, 0x0c, 0xcc, 0x5a, 0xb1, 0xc9, 0xf9, 0x45, 0x25, 0x4a, 0x7c, 0xcc,
    0x6d, 0x83, 0xff, 0xa8, 0x8a, 0xd1, 0x7a, 0x03, 0x43, 0x41, 0xe1, 0x72,
    0xdf, 0xee, 0xfa, 0xd6, 0xa2, 0x25, 0x75, 0xf0, 0xf1, 0x98, 0x6e, 0x90,
    0xf9, 0xe3, 0xf7, 0x08, 0x09, 0x33, 0xb9, 0x80, 0xe8, 0x5c, 0x78, 0x3a,
    0x30, 0xb3, 0xf0, 0xe2, 0xcf, 0xe5, 0xea, 0x15, 0xc4, 0xfe, 0x6e, 0xbd,
    0x02, 0xd9, 0xb0, 0x82, 0x38, 0xf7, 0xf9, 0x2b, 0xf4, 0x8a, 0x2c, 0xe6,
    0x2f, 0x82, 0x54, 0xdc, 0xc3, 0x6b, 0x3c, 0x4f, 0x89, 0x4b, 0x67, 0xee,
    0x1f, 0xe2, 0x20, 0x37, 0x84, 0xf8, 0x75, 0x7f, 0xa4, 0xe8, 0x3b, 0xfd,
    0x5f, 0x85, 0xd5, 0xa8, 0xee, 0x8f, 0xdf, 0x33, 0x43, 0x7b, 0x87, 0xa3,
    0xef, 0x5e, 0x05, 0xef, 0xfe, 0x7b, 0xfb, 0xe5, 0x76, 0x91, 0x9a, 0xd1,
    0xee, 0xbe, 0x8b, 0x67, 0x22, 0x73, 0xff, 0x1f, 0x43, 0x79, 0x74, 0xdb,
    0xba, 0x7d, 0x74, 0xe7, 0xe7, 0xbb, 0x1c, 0xd1, 0xdc, 0x62, 0x38, 0x73,
    0xb4, 0xc3, 0xa0, 0x9a, 0xfb, 0xf3, 0xfd, 0x70, 0x5f, 0x50, 0x33, 0x60,
    0xd8, 0xdd, 0xff, 0xfd, 0x18, 0xcd, 0xed, 0xff, 0xb5, 0x0f, 0xff, 0xad,
    0xbe, 0xf3, 0xb9, 0xf5, 0xfc, 0xfd, 0x86, 0xdc, 0xca, 0xcd, 0x5b, 0x6b,
    0x21, 0x05, 0xdf, 0x61, 0x3f, 0xff, 0xa4, 0xa2, 0x5e, 0xcf, 0xf3, 0xb6,
    0x77, 0xed, 0xc8, 0xe1, 0xcd, 0xfb, 0x31, 0xe4, 0x18, 0xfa, 0x9c, 0xb6,
    0xdf, 0x21, 0xdb, 0xf5, 0x4f, 0xcf, 0xed, 0x95, 0xa0, 0x48, 0xa4, 0x3f,
    0xdc, 0x09, 0x1a, 0x21, 0xbf, 0xff, 0xbf, 0x3b, 0xea, 0x0f, 0x65, 0xe6,
    0x7f, 0x77, 0x1e, 0x4d, 0xfc, 0x4f, 0xe7, 0x43, 0x53, 0xed, 0xcf, 0x77,
    0x7f, 0xba, 0x6e, 0xf2, 0xe7, 0xf6, 0x29, 0xeb, 0x6c, 0x33, 0xdb, 0xd9,
    0x2d, 0xf4, 0xf2, 0xf0, 0xa9, 0xc8, 0xa1, 0xe7, 0x88, 0xca, 0xed, 0x17,
    0x91, 0xa8, 0x13, 0x81, 0xca, 0xfd, 0x6d, 0x15, 0x2e, 0xc8, 0xe3, 0xce,
    0xff, 0x6f, 0xba, 0x6b, 0xde, 0x30, 0x75, 0x13, 0xa6, 0x58, 0xee, 0xed,
    0x23, 0x49, 0x10, 0xcf, 0xdc, 0xf6, 0x7b, 0x73, 0x6a, 0xa0, 0xdf, 0xc3,
    0x79, 0x5c, 0x73, 0xb6, 0x3e, 0xf4, 0x9f, 0x3b, 0x78, 0x23, 0x95, 0x40,
    0x40, 0x46, 0x67, 0xfa, 0x1e, 0x1e, 0x20, 0xf8, 0xde, 0x67, 0x57, 0x28,
    0x3f, 0x1c, 0xc5, 0x69, 0xdb, 0xcf, 0x80, 0x22, 0xfa, 0xfe, 0xb6, 0xdb,
    0x44, 0x6c, 0x68, 0x8b, 0xe5, 0xfa, 0x1b, 0x92, 0xfe, 0xae, 0xcf, 0xef,
    0x9b, 0x00, 0x54, 0x71, 0xf7, 0x3f, 0x62, 0x6f, 0xd7, 0xea, 0xee, 0xff,
    0x95, 0x7a, 0xab, 0xfc, 0xbd, 0x37, 0x1d, 0xf2, 0xee, 0xf5, 0x0d, 0x8f,
    0xad, 0x92, 0xf7, 0xfa, 0xb2, 0x1a, 0x31, 0xfc, 0x63, 0x67, 0xa9, 0xdd,
    0x5a, 0xfb, 0x7e, 0x73, 0x10, 0x83, 0x44, 0x43, 0xfb, 0x9a, 0xcb, 0x53,
    0xbe, 0xe5, 0x4e, 0x72, 0xf7, 0xbf, 0x4e, 0x94, 0xba, 0x92, 0x0b, 0xdd,
    0xf6, 0x7b, 0x8f, 0xcd, 0x61, 0xfb, 0x7b, 0x0f, 0x5f, 0xcc, 0xc1, 0xbc,
    0xdf, 0xad, 0xc6, 0xba, 0xde, 0x31, 0x53, 0xa0, 0x1a, 0xcc, 0xed, 0xff,
    0x2d, 0x4c, 0x9e, 0x68, 0x70, 0x71, 0xfd, 0xed, 0xca, 0xea, 0xf6, 0x27,
    0xf5, 0x44, 0x1b, 0x86, 0x5b, 0xf6, 0xfe, 0x5c, 0xb4, 0xda, 0xfc, 0xdd,
    0xd5, 0x1e, 0xf2, 0x10, 0x8f, 0xff, 0xf8, 0x6e, 0x02, 0xb5, 0xb8, 0x56,
    0x00, 0xf1, 0x6d, 0xb4, 0x68, 0xcb, 0x60, 0x80, 0x23, 0x8c, 0xc2, 0x2d,
    0x6e, 0xcb, 0x96, 0xb1, 0xb3, 0xf1, 0xee, 0x1a, 0xa3, 0x48, 0xef, 0xbe,
    0xc5, 0x83, 0xf0, 0x29, 0xd3, 0x3f, 0x72, 0x32, 0x86, 0xad, 0x41, 0x82,
    0x81, 0x80, 0x92, 0x00, 0xa2, 0x24, 0xf4, 0xab, 0xb6, 0x8f, 0x9c, 0x8f,
    0x65, 0x50, 0x38, 0x84, 0x11, 0x41, 0xa3, 0xce, 0xa0, 0x68, 0xdb, 0x44,
    0xe4, 0x63, 0xc1, 0xc0, 0x40, 0x3f, 0x77, 0xa1, 0xa2, 0xcc, 0x10, 0xb7,
    0x2f, 0x95, 0x85, 0x7a, 0x0e, 0x20, 0xf0, 0x43, 0x41, 0xe4, 0x1f, 0x12,
    0x15, 0xce, 0x86, 0xc5, 0x19, 0x15, 0x2e, 0x17, 0xbd, 0x3f, 0x32, 0xe2,
    0xb5, 0x60, 0x77, 0x2c, 0x1a, 0x95, 0x35, 0xda, 0x14, 0xd4, 0xb9, 0x35,
    0x2a, 0x84, 0x3b, 0x04, 0xf7, 0xec, 0x85, 0x73, 0x34, 0xcc, 0x08, 0x9c,
    0x22, 0xde, 0x2e, 0xee, 0xdb, 0x76, 0x03, 0xbd, 0x90, 0x6c, 0x8f, 0xad,
    0xdf, 0xa8, 0xa6, 0x6a, 0x9b, 0xf7, 0xff, 0x33, 0x98, 0x92, 0x23, 0xf2,
    0xdf, 0x87, 0x0a, 0x23, 0xef, 0x2d, 0x82, 0x1c, 0xd1, 0x37, 0xb8, 0x7f,
    0x0d, 0x09, 0xcc, 0x76, 0xff, 0xb6, 0x3a, 0x4d, 0x0e, 0x8f, 0x90, 0xf9,
    0xe3, 0x76, 0x42, 0xea, 0x23, 0xb4, 0xde, 0xfe, 0x88, 0x26, 0xf8, 0x47,
    0x77, 0xbf, 0xdd, 0x13, 0xc8, 0x0d, 0x71, 0xfc, 0x77, 0xd2, 0x44, 0xc9,
    0xc1, 0x1f, 0x28, 0x0d, 0x4c, 0xc4, 0x11, 0xbf, 0x68, 0x06, 0x42, 0x98,
    0xff, 0xef, 0xae, 0x04, 0x6c, 0xd4, 0x43, 0x2e, 0xec, 0xdd, 0xf4, 0xf0,
    0xd6, 0x79, 0xef, 0xbb, 0xef, 0x4a, 0x95, 0xad, 0xd2, 0xdf, 0xcd, 0x24,
    0xc2, 0x85, 0xfb, 0x5b, 0x70, 0x92, 0xda, 0xf3, 0xff, 0x6e, 0x3f, 0x4d,
    0xc3, 0xfd, 0xe1, 0xeb, 0xca, 0xe2, 0xdf, 0xbd, 0x36, 0xe3, 0x18, 0x87,
    0xe4, 0x3e, 0xee, 0x86, 0x99, 0xc2, 0x61, 0xe4, 0x78, 0x7d, 0x9a, 0xa0,
    0x8a, 0x90, 0x85, 0xfc, 0x77, 0x08, 0x31, 0x7c, 0x98, 0xef, 0xfc, 0xf5,
    0x1a, 0x84, 0x1e, 0xaa, 0xcf, 0xfb, 0x17, 0x42, 0x0c, 0x3f, 0xb5, 0x9f,
    0x8f, 0xde, 0xf4, 0xf7, 0xae, 0xd3, 0x43, 0xa5, 0xe9, 0xc0, 0xbf, 0x4d,
    0x9a, 0x9d, 0x8b, 0xef, 0x51, 0x47, 0x04, 0x13, 0xf1, 0x21, 0x6e, 0x8f,
    0x61, 0x19, 0xf9, 0xfd, 0xe7, 0xf4, 0xcb, 0x60, 0x71, 0xab, 0xdb, 0xb5,
    0xbc, 0xae, 0x02, 0x56, 0x3e, 0xd7, 0xdf, 0x95, 0x1c, 0x3f, 0x92, 0x03,
    0xff, 0xf7, 0x0e, 0x26, 0x91, 0xdf, 0x7b, 0x09, 0x82, 0x72, 0xd0, 0x66,
    0xfe, 0x23, 0x0b, 0xa6, 0xf4, 0xfc, 0x79, 0x18, 0x87, 0xeb, 0xa9, 0x2a,
    0x7e, 0xee, 0x69, 0xe4, 0xd0, 0xfa, 0xd9, 0xfb, 0x8f, 0xbf, 0x11, 0x31,
    0x90, 0xe1, 0x68, 0xaf, 0xb2, 0x14, 0xf8, 0xfb, 0xfe, 0x83, 0x81, 0xa8,
    0x81, 0x82, 0xe1, 0xf9, 0xbb, 0x80, 0xe6, 0x81, 0xfe, 0xed, 0xe1, 0xca,
    0xf9, 0xbd, 0x1f, 0x6d, 0xd8, 0x04, 0x3b, 0x42, 0xce, 0x38, 0x7f, 0x90,
    0xdb, 0x70, 0xb8, 0xf9, 0xff, 0xee, 0x45, 0x78, 0x09, 0x14, 0x1b, 0xa4,
    0x96, 0xd8, 0x41, 0x78, 0xdd, 0xe5, 0x82, 0x10, 0x42, 0xd0, 0x70, 0x97,
    0xdf, 0xb7, 0xb9, 0xae, 0x09, 0xd6, 0x43, 0xce, 0x5c, 0xb1, 0x4e, 0xfe,
    0x07, 0xff, 0xdb, 0xcd, 0x77, 0xa2, 0x1a, 0xc1, 0x73, 0xa7, 0xce, 0x82,
    0x91, 0x7d, 0x7c, 0xee, 0x89, 0xf0, 0x4e, 0xd9, 0x96, 0xbc, 0x58, 0xe4,
    0xa0, 0x6f, 0x15, 0x7d, 0xab, 0xee, 0xfa, 0xd9, 0xf6, 0xa7, 0x42, 0xcd,
    0x7f, 0xba, 0x13, 0xd8, 0x9e, 0x63, 0x29, 0x0f, 0x3d, 0x71, 0xf4, 0xd2,
    0xb0, 0xee, 0x6b, 0x67, 0x97, 0x64, 0x01, 0x05, 0x71, 0xe0, 0xfe, 0x26,
    0xdb, 0x6d, 0xf1, 0xf3, 0xda, 0x8d, 0xaa, 0x09, 0x64, 0x84, 0xbf, 0xef,
    0xdd, 0x31, 0x15, 0x4a, 0x38, 0xff, 0xa3, 0x30, 0x96, 0x32, 0x9c, 0x1e,
    0x21, 0xac, 0x90, 0xd9, 0x33, 0xeb, 0x17, 0x22, 0xa4, 0x97, 0xfc, 0xc3,
    0x4e, 0x9f, 0x1f, 0x68, 0x98, 0x62, 0xec, 0xe8, 0x3d, 0x33, 0xc1, 0xfc,
    0xe0, 0x10, 0xef, 0x22, 0xc1, 0x86, 0x1d, 0x5f, 0x77, 0xfc, 0x1d, 0x92,
    0xaf, 0x81, 0x09, 0x61, 0x79, 0xf7, 0xbd, 0x94, 0x03, 0x21, 0x16, 0xbc,
    0xf3, 0x7e, 0x7d, 0x73, 0xa7, 0x9e, 0x7f, 0x86, 0x42, 0x30, 0xa1, 0xb1,
    0xdf, 0x3d, 0xb4, 0x23, 0x96, 0x79, 0x9e, 0xbe, 0x16, 0x11, 0xab, 0xc1,
    0xed, 0xb7, 0xf3, 0x1c, 0xb2, 0xb2, 0xf6, 0xff, 0x5d, 0xc8, 0xe2, 0x13,
    0x2d, 0xf7, 0xe5, 0xfc, 0x66, 0x27, 0xdf, 0xbe, 0x45, 0x6b, 0x8a, 0xb0,
    0xf9, 0x3b, 0xc6, 0x43, 0x21, 0x88, 0xec, 0x38, 0xfb, 0xa1, 0x43, 0xa6,
    0xbd, 0x58, 0xcf, 0x17, 0xea, 0x14, 0x26, 0xc3, 0xfb, 0xdf, 0xba, 0x84,
    0xbe, 0xcd, 0xa1, 0xd8, 0xfe, 0x7a, 0xbe, 0x7e, 0xff, 0xbb, 0xdb, 0x51,
    0xe4, 0x15, 0xee, 0x03, 0xfa, 0x61, 0x7b, 0xf8, 0xf6, 0xfd, 0x53, 0x23,
    0x81, 0x04, 0xc1, 0xf6, 0x5b, 0x7b, 0xfc, 0x47, 0xe2, 0x6c, 0xc3, 0xcc,
    0x6d, 0xff, 0xa9, 0xed, 0x45, 0x44, 0xb8, 0x50, 0xcc, 0x7e, 0xbf, 0x69,
    0xd6, 0x3e, 0x5c, 0xcc, 0xf8, 0xad, 0xd7, 0x17, 0x50, 0x7e, 0xbf, 0x3d,
    0xac, 0x36, 0xe1, 0xdf, 0x9b, 0x2f, 0x6f, 0xae, 0xb7, 0xfa, 0x6e, 0xfe,
    0x62, 0xee, 0x92, 0xd8, 0xff, 0xac, 0x7d, 0xe5, 0xba, 0xc8, 0x3a, 0xf7,
    0xb7, 0x9e, 0x0f, 0x7b, 0x6e, 0xce, 0x95, 0xbc, 0x23, 0x9f, 0xbf, 0xaf,
    0x40, 0xbe, 0xb9, 0x22, 0xc8, 0xbd, 0x8f, 0xd6, 0xb3, 0xef, 0xff, 0xb7,
    0x5d, 0xe1, 0x8c, 0x3c, 0xd5, 0xdc, 0xce, 0x7d, 0x6b, 0x3b, 0x9d, 0xef,
    0xef, 0xe0, 0x41, 0x60, 0xf0, 0x73, 0x07, 0x1b, 0x8b, 0x5b, 0x7f, 0x65,
    0xe7, 0x42, 0xe8, 0xec, 0x55, 0xfd, 0xe1, 0x8d, 0x24, 0xa4, 0xdf, 0x94,
    0x3f, 0x42, 0xaa, 0x83, 0x7a, 0xbc, 0x3c, 0xc9, 0xea, 0xed, 0xf7, 0x6e,
    0x5f, 0xf2, 0x07, 0x63, 0x25, 0xab, 0x8f, 0xaf, 0x32, 0xbf, 0xfc, 0xff,
    0xd5, 0x2a, 0xa6, 0x2e, 0xb7, 0x37, 0xbe, 0x2e, 0x72, 0x4a, 0xe6, 0x77,
    0xfe, 0x54, 0x35, 0xc4, 0xfc, 0xf3, 0xce, 0xa7, 0xa2, 0x2a, 0x98, 0xff,
    0x1f, 0x97, 0x14, 0x45, 0x79, 0xf8, 0xbf, 0xe7, 0xb6, 0x5c, 0x69, 0xe8,
    0x7f, 0x1b, 0xc1, 0xd4, 0x7e, 0xbb, 0x1f, 0x80, 0x0c, 0x2a, 0xfa, 0x93,
    0x5b, 0x1a, 0x3d, 0xf1, 0xfd, 0xe6, 0xe4, 0xf7, 0x54, 0x33, 0xfc, 0x7e,
    0x34, 0x83, 0xe9, 0xf3, 0xdd, 0x7b, 0x59, 0x6f, 0xb4, 0x65, 0x78, 0xd0,
    0x2f, 0xdd, 0x3a, 0xb1, 0x67, 0xc5, 0xde, 0xef, 0xf7, 0x6c, 0xca, 0xa0,
    0xda, 0xbf, 0xb9, 0xc9, 0x37, 0xc6, 0xd7, 0x9d, 0xdf, 0x0a, 0x9e, 0x36,
    0xb9, 0xa1, 0x2f, 0xe0, 0xca, 0xe0, 0x9b, 0xbe, 0x20, 0xe5, 0x36, 0x2c,
    0xec, 0x9f, 0x9f, 0xeb, 0x90, 0x39, 0x1e, 0x95, 0xdf, 0x37, 0x84, 0x8d,
    0xa0, 0xee, 0x9d, 0x7b, 0x00, 0x39, 0xfd, 0xfc, 0xb3, 0x8b, 0x41, 0x89,
    0xa1, 0xff, 0xfd, 0xe6, 0x1d, 0xc8, 0x70, 0xbf, 0xc3, 0xff, 0xfa, 0x92,
    0x28, 0x73, 0xff, 0x37, 0x50, 0xe5, 0xe7, 0xfe, 0xbf, 0xf9, 0xa0, 0xc5,
    0xe6, 0xb1, 0xf7, 0x8f, 0xb5, 0xd1, 0xfe, 0x72, 0xbf, 0xb7, 0x52, 0xf7,
    0xcd, 0xea, 0x3d, 0x45, 0x68, 0x79, 0xf7, 0xdf, 0xf2, 0x49, 0xdd, 0xd5,
    0xef, 0xb2, 0x87, 0x10, 0xf0, 0xbf, 0xef, 0x3c, 0x55, 0xa8, 0xc2, 0xf1,
    0xdf, 0xeb, 0x13, 0x4e, 0xb8, 0x7b, 0x7f, 0x2e, 0xbc, 0x53, 0xce, 0xfe,
    0x76, 0xbc, 0xc0, 0xbd, 0xbd, 0xef, 0xd5, 0x7c, 0x5a, 0xc0, 0x5f, 0x4b,
    0xab, 0x9b, 0x2c, 0xfb, 0xbf, 0x39, 0x97, 0x81, 0x18, 0xa0, 0xfd, 0xf7,
    0x9d, 0x24, 0x4e, 0xc3, 0xd9, 0xee, 0xdf, 0x5d, 0x82, 0x3f, 0x3e, 0xbf,
    0x63, 0xa1, 0x23, 0xed, 0xdd, 0xfe, 0x98, 0xf9, 0x4f, 0x6f, 0xff, 0xbf,
    0x6d, 0x60, 0xae, 0x8d, 0xdb, 0xff, 0x95, 0xa2, 0x83, 0xff, 0xb9, 0xed,
    0xf0, 0x4b, 0x6f, 0xbb, 0xef, 0x51, 0x2b, 0x74, 0xcb, 0xfe, 0x1b, 0x6a,
    0x0d, 0x6b, 0xea, 0xfe, 0x4f, 0xf9, 0x28, 0xbf, 0xff, 0xee, 0x43, 0x7a,
    0x85, 0xde, 0x5f, 0x1d, 0x92, 0x94, 0xfb, 0x7f, 0x3a, 0xa8, 0x4e, 0x0f,
    0x34, 0x7d, 0xfe, 0x2e, 0x23, 0x31, 0xe7, 0xdf, 0x35, 0x22, 0x37, 0x31,
    0xbf, 0x7b, 0x7f, 0x42, 0x67, 0x45, 0xd3, 0xbf, 0xee, 0x4a, 0x35, 0xd6,
    0x5f, 0xdd, 0x4e, 0xc0, 0xe2, 0x7f, 0xbb, 0x7b, 0xbb, 0x92, 0x9a, 0xf1,
    0x73, 0xeb, 0x78, 0x24, 0xe5, 0xe5, 0xef, 0x86, 0xa0, 0x02, 0x21, 0xef,
    0xed, 0xf6, 0xf4, 0x05, 0xe5, 0xbf, 0x6e, 0x7d, 0xb7, 0xe8, 0xd9, 0xfe,
    0x77, 0x17, 0xb5, 0x0b, 0x11, 0xf6, 0x77, 0x7d, 0xee, 0xa3, 0xdf, 0xed,
    0xfb, 0xf4, 0x0d, 0xe2, 0x72, 0xcf, 0xf3, 0x55, 0xdd, 0x57, 0x56, 0xef,
    0xbd, 0x37, 0x06, 0x35, 0x1c, 0xdb, 0xff, 0x9b, 0x71, 0x08, 0xfa, 0x7f,
    0x76, 0xdb, 0x37, 0x1f, 0x2f, 0x38, 0xd9, 0x2f, 0x2f, 0x77, 0xc7, 0xcf,
    0x6c, 0xd6, 0x85, 0x20, 0x26, 0x6a, 0xa7, 0x3b, 0x9e, 0xf7, 0x50, 0x88,
    0xf9, 0x9d, 0x68, 0xea, 0x9e, 0x31, 0xff, 0xc1, 0xfd, 0x28, 0xb4, 0x8d,
    0xf0, 0xf8, 0x7b, 0xf7, 0x77, 0x11, 0xc1, 0xec, 0xcd, 0x2b, 0x81, 0xa1,
    0xac, 0xc7, 0xfe, 0xcf, 0x67, 0xfe, 0xf4, 0xa2, 0x9e, 0x77, 0x65, 0x50,
    0xad, 0xfd, 0xb0, 0x5f, 0x93, 0xf8, 0xee, 0x52, 0x76, 0xb8, 0xff, 0x23,
    0xa7, 0x8e, 0x7d, 0x72, 0x6b, 0x0f, 0x47, 0x13, 0xb2, 0x47, 0x3c, 0x67,
    0xcf, 0xb0, 0x48, 0x0a, 0x5e, 0xdf, 0x67, 0x08, 0x28, 0x7a, 0xa6, 0xc0,
    0xf7, 0x9e, 0x24, 0x1c, 0xe4, 0x8a, 0xd8, 0x77, 0x24, 0x6a, 0xf8, 0xf9,
    0xbd, 0xdb, 0x2f, 0xf6, 0x04, 0xde, 0x45, 0xe0, 0x5f, 0xb7, 0xb2, 0xcd,
    0x4c, 0xe7, 0xf7, 0x2b, 0xca, 0x3a, 0xf8, 0x79, 0xfd, 0x5a, 0x4d, 0x8e,
    0x8b, 0x5f, 0xd6, 0x9f, 0xa3, 0xe0, 0xac, 0x23, 0xfe, 0x1e, 0x35, 0x9c,
    0xf2, 0xec, 0xd4, 0xe5, 0x44, 0x12, 0x10, 0x95, 0x7b, 0x77, 0xc1, 0xbd,
    0xa0, 0x36, 0xfa, 0x3b, 0xb1, 0xe0, 0x6a, 0x17, 0x99, 0xfc, 0xcd, 0xfd,
    0x4a, 0x4d, 0x90, 0x35, 0xff, 0x2f, 0x70, 0x7f, 0x9e, 0xf6, 0xd6, 0xf4,
    0xbf, 0x0d, 0x81, 0x50, 0x13, 0xee, 0xee, 0x1b, 0x00, 0xe2, 0xa3, 0x11,
    0xb7, 0xf7, 0x36, 0x55, 0x40, 0x7d, 0xdd, 0x5d, 0x4b, 0xd5, 0xd5, 0x09,
    0xfe, 0xd7, 0x08, 0xcb, 0x5e, 0xf7, 0xdc, 0x3d, 0x21, 0x28, 0xf1, 0xeb,
    0xdc, 0xf1, 0x87, 0xc6, 0x12, 0x09, 0x7f, 0x70, 0x0b, 0x37, 0xc8, 0xd4,
    0xd9, 0xff, 0x52, 0x28, 0xc1, 0x53, 0xe3, 0xee, 0xff, 0xe7, 0x88, 0xcd,
    0x0c, 0xcb, 0x0b, 0x1c, 0xcf, 0x25, 0xfc, 0xae, 0xfb, 0x9e, 0x0a, 0x41,
    0x54, 0xed, 0xe4, 0xc8, 0x67, 0x0c, 0xf7, 0x01, 0x9b, 0xdd, 0x1b, 0x1a,
    0x32, 0x45, 0x1d, 0xbd, 0xfd, 0x02, 0x06, 0x39, 0xc4, 0x97, 0x3f, 0xd8,
    0x3d, 0x28, 0xc4, 0x10, 0xe0, 0xf6, 0x2b, 0xcf, 0x18, 0xa3, 0x84, 0x1b,
    0xff, 0xb6, 0x0e, 0xe1, 0x8c, 0x87, 0xf3, 0x3f, 0xd3, 0x2e, 0x52, 0x75,
    0xa7, 0xff, 0x45, 0xf0, 0x51, 0xb6, 0x99, 0xff, 0x8d, 0x99, 0x7c, 0x3f,
    0x90, 0x42, 0xc8, 0x22, 0x78, 0xdf, 0xf5, 0xf0, 0xc6, 0x2c, 0x82, 0x38,
    0x43, 0xe0, 0xfd, 0x0e, 0xaf, 0x4b, 0x01, 0xb9, 0x7f, 0x17, 0x84, 0x48,
    0xa6, 0x40, 0x5a, 0xa1, 0xcb, 0xa6, 0xcd, 0xf9, 0xfb, 0x73, 0x01, 0x22,
    0xa3, 0xc4, 0x0b, 0x17, 0xcf, 0x37, 0x65, 0x25, 0xda, 0x12, 0x6f, 0x8d,
    0x61, 0x88, 0x10, 0xb6, 0xfd, 0xbb, 0x08, 0xd1, 0x4d, 0x01, 0x43, 0xa3,
    0xba, 0xe7, 0xbd, 0x30, 0xe6, 0xab, 0xc6, 0x2a, 0x35, 0x1b, 0x08, 0x74,
    0xf7, 0x0d, 0x1a, 0xd0, 0x37, 0xf4, 0xff, 0xbd, 0xf3, 0x18, 0x54, 0xd6,
    0xde, 0xe9, 0xde, 0xbf, 0x59, 0x77, 0x8a, 0x9b, 0xf5, 0x4f, 0x56, 0x2d,
    0x5d, 0x3e, 0x6e, 0x35, 0x72, 0xf3, 0xbc, 0xef, 0xdb, 0xd9, 0x11, 0x0a,
    0x21, 0x19, 0x28, 0x8c, 0xf7, 0x0f, 0xb9, 0x21, 0x63, 0x74, 0x7f, 0x2b,
    0x48, 0x19, 0x59, 0x3d, 0xf8, 0xbe, 0x83, 0x0d, 0x11, 0xf4, 0x5b, 0xf5,
    0xd3, 0xdd, 0x43, 0x23, 0x81, 0x59, 0x36, 0xce, 0xed, 0x54, 0xb0, 0xb8,
    0x0e, 0xb7, 0x48, 0xaa, 0xc4, 0x41, 0xf0, 0xfa, 0xfd, 0xda, 0x0b, 0xa1,
    0xea, 0xdf, 0x57, 0xee, 0x39, 0x2b, 0xee, 0x8c, 0xe3, 0xfd, 0xf6, 0x52,
    0x61, 0xdb, 0x28, 0x85, 0x8e, 0x7b, 0x31, 0x59, 0x91, 0x9c, 0xdd, 0x3e,
    0x56, 0xa2, 0x19, 0x95, 0x79, 0xfe, 0xdc, 0x56, 0x12, 0xa3, 0x81, 0x7f,
    0x6d, 0xbc, 0x37, 0xc0, 0x3b, 0xae, 0xf5, 0x32, 0x11, 0x58, 0xf0, 0xe6,
    0xcb, 0xe8, 0x69, 0xa8, 0xc1, 0xfd, 0xde, 0xde, 0x21, 0xab, 0x1c, 0x0c,
    0xb9, 0xf3, 0xed, 0x67, 0x87, 0xe8, 0xc1, 0xef, 0x17, 0x4b, 0x88, 0x2f,
    0x6e, 0xad, 0x21, 0x58, 0x41, 0xfb, 0x61, 0xaf, 0xda, 0x0b, 0x51, 0x06,
    0xf3, 0x0f, 0x77, 0x11, 0x05, 0x21, 0x46, 0xc8, 0x8e, 0xf3, 0xdf, 0x8b,
    0x10, 0x31, 0xfe, 0xba, 0x4b, 0x3d, 0x11, 0x92, 0xf3, 0x7f, 0xeb, 0xb2,
    0x93, 0xcd, 0xd9, 0xef, 0x3e, 0xb7, 0x12, 0x2d, 0xf4, 0x72, 0xfa, 0xfc,
    0xa0, 0x27, 0x71, 0xfe, 0xdd, 0x09, 0xa4, 0xb8, 0x0f, 0x79, 0x6f, 0x8f,
    0x84, 0x2d, 0x1a, 0xbd, 0xe7, 0x5e, 0x0c, 0x95, 0x99, 0xd0, 0xf6, 0x9c,
    0x2d, 0xb0, 0xa9, 0x78, 0xf8, 0xb1, 0xe7, 0x06, 0xcd, 0x16, 0xca, 0x7d,
    0xb5, 0x07, 0xa2, 0xea, 0x15, 0x66, 0xf9, 0x77, 0xa3, 0xbc, 0xc8, 0xcb,
    0x87, 0xc1, 0x97, 0x81, 0x2c, 0xff, 0xe5, 0xce, 0x6c, 0x17, 0x85, 0x2e,
    0x18, 0x68, 0xa3, 0x7d, 0x9b, 0x88, 0xd0, 0xcb, 0xcd, 0xe9, 0x91, 0x85,
    0x25, 0x1c, 0x75, 0xd6, 0xb7, 0x8a, 0x0f, 0xfd, 0x35, 0xd4, 0x7f, 0x5c,
    0xcd, 0xac, 0x5a, 0x20, 0x9d, 0xee, 0x2e, 0x64, 0x7a, 0xdf, 0xd9, 0x7f,
    0x37, 0x7d, 0x74, 0x9b, 0x29, 0xa7, 0x47, 0xef, 0x7d, 0xab, 0xb4, 0xff,
    0x99, 0xfb, 0x87, 0x8d, 0x88, 0x74, 0x3f, 0x7e, 0xd7, 0xa8, 0x84, 0x9d,
    0x3e, 0x67, 0xa5, 0x8e, 0xd1, 0xfe, 0xf3, 0xbb, 0x8b, 0x20, 0x20, 0x4b,
    0xbf, 0x43, 0xfe, 0x5b, 0x09, 0x0a, 0xf6, 0xbf, 0x9d, 0x3c, 0x62, 0xdb,
    0x48, 0xfd, 0x75, 0xad, 0x44, 0xa8, 0xb1, 0x2b, 0xac, 0xa2, 0xfa, 0x67,
    0xe9, 0x65, 0xef, 0xb3, 0x39, 0xe6, 0x03, 0xa9, 0xc2, 0xcf, 0xed, 0xbb,
    0x4a, 0x99, 0x08, 0xf7, 0x66, 0x37, 0xd5, 0x22, 0xff, 0x9d, 0xdd, 0xc7,
    0x15, 0xa7, 0x11, 0x31, 0xde, 0x5d, 0xb2, 0xf4, 0x2d, 0xd0, 0xcd, 0xef,
    0x28, 0xfc, 0x68, 0x53, 0x58, 0x95, 0xfd, 0xff, 0x37, 0x7f, 0xf6, 0xf7,
    0x69, 0x79, 0xed, 0xc8, 0xb6, 0x1e, 0xf4, 0x0b, 0xc0, 0xad, 0x2b, 0xba,
    0x37, 0xef, 0x9f, 0xed, 0x5a, 0x0d, 0xd3, 0x57, 0x2a, 0x93, 0x97, 0x1b,
    0x76, 0xe7, 0xbe, 0xfd, 0x15, 0x45, 0xc5, 0xdb, 0xa7, 0xf7, 0x8c, 0x0f,
    0x22, 0x1c, 0xfb, 0x13, 0xb7, 0x8f, 0x6e, 0xb4, 0xe2, 0xdc, 0xf0, 0x9e,
    0xe3, 0xa2, 0x99, 0x0e, 0xbd, 0xeb, 0xfe, 0x9b, 0x1e, 0xb4, 0x71, 0xfe,
    0xef, 0x21, 0x0c, 0x56, 0x73, 0xe0, 0xe3, 0x27, 0xe1, 0xfb, 0xc7, 0x1e,
    0xc4, 0xe3, 0x18, 0x13, 0xb6, 0x37, 0xfc, 0x89, 0x9a, 0x00, 0x5e, 0x6f,
    0x9f, 0x8b, 0x2a, 0x34, 0xfd, 0x77, 0xbb, 0xa5, 0x5c, 0x3f, 0xd2, 0xfe,
    0xde, 0xf1, 0x52, 0x13, 0xfa, 0xf2, 0x95, 0x15, 0x36, 0xd9, 0xff, 0x34,
    0x57, 0x53, 0xec, 0xdc, 0xf5, 0xcd, 0x69, 0x1f, 0xd1, 0x42, 0xb8, 0xeb,
    0xff, 0x5d, 0x17, 0x0e, 0x67, 0x03, 0x5f, 0xcd, 0xbe, 0xbb, 0x8f, 0x9f,
    0xa5, 0x0a, 0xb2, 0x6e, 0xe5, 0xc2, 0x7f, 0x75, 0x5f, 0x20, 0x50, 0xa1,
    0x2e, 0xfb, 0xb5, 0x34, 0xf7, 0xcf, 0xfd, 0xf7, 0xd4, 0x25, 0x80, 0x4a,
    0xfe, 0xed, 0x06, 0x11, 0xfb, 0x5f, 0xed, 0x6e, 0x4a, 0x92, 0xd3, 0xff,
    0xe3, 0x5a, 0x4f, 0x6a, 0x5f, 0xbf, 0xe7, 0xce, 0xe5, 0x4d, 0x03, 0xf4,
    0x95, 0x33, 0x32, 0x3f, 0xb0, 0xb2, 0xdb, 0xfd, 0x09, 0xb6, 0x8e, 0x14,
    0xf6, 0x37, 0xdd, 0xf5, 0xe6, 0xf3, 0xe7, 0xaf, 0xa5, 0xe5, 0x1f, 0x71,
    0xe3, 0x7e, 0x2e, 0x28, 0x7f, 0xfd, 0xe7, 0x0e, 0xa9, 0x00, 0xba, 0xd1,
    0xfb, 0xfc, 0x0a, 0xe7, 0x12, 0xa4, 0x8f, 0xb1, 0x82, 0xe7, 0x86, 0xf8,
    0xdd, 0xf3, 0xa9, 0x45, 0x41, 0x60, 0x64, 0xf6, 0xb9, 0x2d, 0x15, 0x97,
    0xd7, 0xfd, 0xe8, 0xea, 0x26, 0x66, 0x6c, 0x9d, 0xf3, 0x93, 0xee, 0x22,
    0xe0, 0x31, 0xb6, 0xf9, 0x64, 0x0b, 0x3f, 0xb0, 0xf0, 0xba, 0x00, 0xb5,
    0xe9, 0x33, 0xfc, 0xa3, 0xee, 0x97, 0x03, 0x12, 0x24, 0x86, 0x6f, 0x0f,
    0xff, 0xbc, 0xb8, 0x02, 0x0a, 0x7c, 0x27, 0xc5, 0x58, 0xc3, 0x06, 0xc1,
    0x23, 0x41, 0xd6, 0xdb, 0xc0, 0x33, 0xb3, 0xff, 0xa2, 0x98, 0x84, 0x4e,
    0xac, 0x02, 0xe2, 0xaf, 0xdd, 0x8a, 0x4e, 0xe8, 0x11, 0x3b, 0x9e, 0x44,
    0xdb, 0x93, 0x19, 0xfb, 0xbf, 0x21, 0xa8, 0x92, 0x3f, 0x36, 0x1f, 0xde,
    0xfe, 0x85, 0x3b, 0xc1, 0x75, 0xe7, 0x5f, 0x09, 0xc4, 0xc8, 0x67, 0xf7,
    0x97, 0x46, 0x00, 0xe4, 0x5c, 0x9c, 0x7b, 0x7d, 0x75, 0x8e, 0xcb, 0xde,
    0xf7, 0x22, 0x86, 0xc3, 0xdf, 0x7d, 0xbd, 0x71, 0x04, 0x4a, 0xf7, 0xf3,
    0xfe, 0xdd, 0x72, 0x4e, 0x2b, 0x37, 0xec, 0x06, 0xab, 0x7c, 0x8f, 0xed,
    0x4e, 0xdc, 0x08, 0x87, 0x86, 0x3f, 0xeb, 0x78, 0xca, 0xfa, 0x97, 0xdc,
    0xf5, 0xff, 0x9d, 0x7f, 0xd0, 0x67, 0x73, 0xc0, 0xf3, 0x59, 0xce, 0xf1,
    0xcd, 0x1a, 0x19, 0x14, 0x34, 0xc8, 0x7e, 0x73, 0x1d, 0x0e, 0xfc, 0x4f,
    0xf0, 0xcf, 0x3d, 0xcf, 0xd0, 0xbb, 0x2c, 0xfe, 0xef, 0xee, 0xa5, 0xf7,
    0xae, 0xfd, 0xef, 0xee, 0xeb, 0x0d, 0xf7, 0xbf, 0xbb, 0x11, 0x03, 0xce,
    0x67, 0x9f, 0xf3, 0xa9, 0xed, 0xff, 0x39, 0x4e, 0xf7, 0x90, 0x28, 0x80,
    0xdb, 0x0f, 0xe7, 0xed, 0xdd, 0x6f, 0x3c, 0x06, 0x03, 0xd9, 0x5a, 0x47,
    0xed, 0xdd, 0xe1, 0x98, 0x78, 0xff, 0xad, 0xeb, 0xf7, 0x59, 0x38, 0xa7,
    0xff, 0xfd, 0xfd, 0x57, 0x2c, 0x26, 0xb9, 0xfb, 0xe1, 0x9a, 0xfa, 0xbf,
    0x4e, 0xa1, 0x93, 0x53, 0x14, 0xb5, 0x47, 0xaa, 0x2a, 0x77, 0xc0, 0x0f,
    0x38, 0x83, 0x42, 0xa0, 0xd4, 0x43, 0x08, 0xf7, 0xff, 0xbb, 0x1a, 0x5c,
    0xd0, 0x32, 0x1c, 0x64, 0xa4, 0x9c, 0xa9, 0xf7, 0xbe, 0xf7, 0xdd, 0x61,
    0x05, 0x5e, 0xc3, 0x64, 0xf7, 0x6c, 0x7e, 0xef, 0xaf, 0x2d, 0xdf, 0xfb,
    0x76, 0xbb, 0xa9, 0xa8, 0x75, 0x90, 0xf3, 0x7a, 0xd7, 0xc7, 0x1e, 0x5d,
    0x85, 0x89, 0x06, 0x13, 0x52, 0xf8, 0xb9, 0xed, 0x22, 0x3c, 0x78, 0x43,
    0xe8, 0x20, 0xe6, 0x77, 0x38, 0x2c, 0x78, 0x74, 0x69, 0x15, 0x42, 0x38,
    0xe2, 0xd4, 0xfd, 0xbf, 0xbb, 0x11, 0x11, 0x74, 0x10, 0x62, 0xec, 0xc1,
    0xde, 0xd7, 0xf4, 0xcf, 0x78, 0xeb, 0x24, 0x84, 0x20, 0x02, 0x8d, 0x6e,
    0x2f, 0xd0, 0x0f, 0x6e, 0xf6, 0xe0, 0x13, 0xc4, 0x78, 0x41, 0xb8, 0xaa,
    0x9f, 0x9d, 0x7b, 0x05, 0x24, 0x60, 0x48, 0xdc, 0xbf, 0x3d, 0x7c, 0x91,
    0x0c, 0x85, 0xf9, 0xff, 0x34, 0x92, 0x8f, 0xb5, 0xdc, 0xff, 0x15, 0xd0,
    0x77, 0x59, 0xcf, 0xde, 0x07, 0xa5, 0x97, 0xd9, 0xa9, 0xc1, 0x35, 0x12,
    0x93, 0xf9, 0xe3, 0xe6, 0xcd, 0xdb, 0x5d, 0x54, 0xca, 0x38, 0xe4, 0x0d,
    0xa1, 0x37, 0x28, 0x7d, 0x48, 0x9f, 0x8a, 0x69, 0x84, 0x18, 0x46, 0xfc,
    0xea, 0xd5, 0xaa, 0xf0, 0x65, 0xcd, 0x7e, 0xcd, 0x6a, 0x68, 0x02, 0x52,
    0x97, 0xfb, 0xbf, 0x22, 0x4d, 0xf0, 0xd3, 0xff, 0xf7, 0x2d, 0x7e, 0x08,
    0x89, 0xda, 0x3d, 0xbe, 0x1e, 0x2b, 0x4d, 0xee, 0xe6, 0x77, 0x07, 0x2b,
    0xe9, 0x6e, 0x71, 0x5a, 0xf3, 0x21, 0x7c, 0xb7, 0xbb, 0xf0, 0x0d, 0x54,
    0x25, 0x36, 0xf3, 0xef, 0xec, 0x7a, 0x81, 0x84, 0x2d, 0x91, 0x24, 0x20,
    0x9e, 0xd2, 0x11, 0x2a, 0xbf, 0x76, 0x85, 0x02, 0x7b, 0x2a, 0x4c, 0x61,
    0x90, 0xd1, 0x9e, 0xde, 0x12, 0x92, 0xfe, 0xf0, 0x78, 0xbb, 0xe2, 0x71,
    0xf3, 0x2a, 0x1c, 0xec, 0x97, 0x3f, 0x1b, 0x52, 0x99, 0x81, 0xdb, 0x82,
    0x5b, 0x35, 0xab, 0xf3, 0xdb, 0x5e, 0x68, 0x90, 0xc0, 0x02, 0x11, 0xff,
    0x69, 0x77, 0x38, 0x0b, 0xa2, 0xd0, 0xbd, 0x7e, 0x42, 0xf7, 0x45, 0xb2,
    0x7b, 0xff, 0x56, 0xad, 0x1a, 0x1e, 0xec, 0x3e, 0x43, 0x2d, 0xac, 0x3e,
    0x36, 0x1f, 0x86, 0x21, 0x1b, 0xe2, 0x8e, 0x74, 0xcb, 0x95, 0x51, 0x08,
    0xbb, 0xb7, 0xaf, 0x8d, 0x61, 0x4b, 0x90, 0x72, 0x4f, 0x7f, 0xef, 0x44,
    0x78, 0xde, 0xad, 0x6f, 0x49, 0x01, 0x2d, 0x3d, 0x0e, 0xbf, 0xa2, 0xc5,
    0x50, 0xef, 0xce, 0xd3, 0x0b, 0xd4, 0x34, 0x1e, 0xc2, 0x4f, 0x1f, 0xb4,
    0x25, 0x9b, 0x10, 0xec, 0x1f, 0xa5, 0xd6, 0xbd, 0x2d, 0x31, 0xe2, 0x30,
    0xe4, 0x46, 0x91, 0x93, 0x10, 0x21, 0x7d, 0xaf, 0x72, 0x22, 0x7c, 0x81,
    0x4d, 0x11, 0x0c, 0x79, 0x1c, 0x77, 0x92, 0x89, 0x2d, 0xe7, 0xfe, 0x9b,
    0xe3, 0x81, 0x13, 0x39, 0x09, 0x7f, 0x5c, 0xdf, 0xa1, 0x36, 0xb9, 0x0b,
    0xff, 0x82, 0x27, 0x90, 0x47, 0xf8, 0xff, 0xee, 0x57, 0x94, 0xe7, 0xad,
    0xcd, 0x69, 0x85, 0x85, 0x4d, 0xb9, 0xfd, 0x7d, 0x07, 0x34, 0x88, 0x61,
    0x56, 0xb8, 0x9c, 0x2a, 0xf0, 0x51, 0xc2, 0x9d, 0xff, 0xff, 0xee, 0x63,
    0xa2, 0xf3, 0x0b, 0x3f, 0x6f, 0xfb, 0x7d, 0xe8, 0x73, 0xf4, 0x9b, 0x55,
    0x55, 0xfd, 0xe3, 0xdd, 0x1a, 0xb6, 0x1a, 0x6e, 0x7f, 0x1d, 0xd7, 0x8f,
    0x05, 0x7b, 0xef, 0xeb, 0x98, 0x9a, 0x35, 0x84, 0x70, 0xf3, 0xab, 0x39,
    0x69, 0x49, 0x1c, 0x38, 0x49, 0x12, 0xd5, 0x4f, 0x01, 0xfb, 0x25, 0x21,
    0x47, 0xe8, 0xc0, 0x51, 0xd9, 0x59, 0x4d, 0xc5, 0xee, 0x46, 0xf7, 0xdf,
    0xfd, 0xf6, 0x82, 0x81, 0x78, 0xec, 0x45, 0x0f, 0xf7, 0x0f, 0xb2, 0x42,
    0xff, 0xab, 0x33, 0x91, 0x8f, 0xb8, 0x27, 0xc0, 0xb5, 0x69, 0xf1, 0x80,
    0xf7, 0xf2, 0xfb, 0x28, 0xc6, 0x8a, 0x5c, 0x8e, 0xcd, 0xe5, 0xdf, 0xe9,
    0x59, 0x0b, 0xfc, 0x79, 0xf7, 0x3f, 0x10, 0x8c, 0x03, 0xbc, 0xbe, 0xa3,
    0x6c, 0xc3, 0x7f, 0x77, 0x5b, 0x38, 0xbd, 0x84, 0x42, 0xba, 0xde, 0xec,
    0xc5, 0x3d, 0xc6, 0xef, 0x36, 0x68, 0xea, 0x50, 0xfa, 0x4b, 0xf8, 0x59,
    0xed, 0x82, 0xd0, 0x1e, 0xab, 0x66, 0x43, 0x88, 0xcb, 0x64, 0x7f, 0x06,
    0xbf, 0x48, 0x14, 0xbe, 0x6b, 0xd6, 0x3c, 0xe4, 0x7d, 0x40, 0x65, 0x01,
    0xad, 0x3b, 0xe7, 0x9f, 0xa5, 0x80, 0x08, 0x49, 0x21, 0xcf, 0xf7, 0xfe,
    0xa3, 0xba, 0xff, 0xf7, 0x2f, 0x44, 0xe0, 0x04, 0xa9, 0x33, 0x77, 0x7c,
    0xa5, 0x07, 0x8e, 0xdf, 0xf9, 0x2a, 0x72, 0x29, 0x5c, 0x6d, 0x66, 0x1f,
    0xa2, 0x0a, 0x24, 0xf7, 0x84, 0x6d, 0x6c, 0x21, 0xd2, 0x49, 0xfd, 0xb7,
    0xf6, 0x52, 0x44, 0xa1, 0x04, 0xc1, 0xdc, 0xff, 0xb8, 0xd7, 0x1b, 0x63,
    0xf5, 0xfe, 0xbd, 0x8d, 0x26, 0xbb, 0x7e, 0x7b, 0xf9, 0xbb, 0x62, 0xf8,
    0xfe, 0x7a, 0xff, 0xe7, 0xf8, 0x69, 0xee, 0x06, 0x7e, 0xb3, 0xb9, 0xf8,
    0xbf, 0x52, 0xb3, 0x8c, 0x27, 0x24, 0xfc, 0xeb, 0x9a, 0x6f, 0x24, 0xfc,
    0x30, 0x0e, 0x1f, 0x93, 0x13, 0x5a, 0xfc, 0x7d, 0x56, 0x2a, 0x70, 0x28,
    0x64, 0x13, 0xae, 0x6f, 0xf7, 0x54, 0x42, 0xb2, 0x8b, 0xdc, 0xe9, 0x2f,
    0x74, 0xbc, 0xdd, 0xbb, 0x99, 0x7b, 0x7c, 0x8d, 0xae, 0xbf, 0xd6, 0xd8,
    0x82, 0x65, 0x42, 0x78, 0xcf, 0xeb, 0xad, 0xba, 0x72, 0xf7, 0xdf, 0x6f,
    0x55, 0x87, 0x98, 0xc2, 0xde, 0x7a, 0x4c, 0xf2, 0xdd, 0x71, 0x77, 0xed,
    0x77, 0xaf, 0x0c, 0x7d, 0xf2, 0xcf, 0x63, 0x26, 0x10, 0xcd, 0xff, 0xfd,
    0xfd, 0x7a, 0x2b, 0xba, 0x74, 0xe2, 0xbe, 0x76, 0x63, 0x75, 0xfe, 0xc6,
    0x72, 0x51, 0x10, 0x88, 0xdf, 0x98, 0x77, 0x09, 0xe8, 0xf0, 0xd8, 0xf1,
    0x87, 0x6b, 0xf9, 0x3c, 0xeb, 0x9e, 0xfb, 0xba, 0x61, 0x4c, 0x28, 0x27,
    0xda, 0xf7, 0xa6, 0x6b, 0x48, 0x88, 0xa2, 0x1a, 0x53, 0x8c, 0x47, 0xf8,
    0xee, 0xe0, 0xfe, 0xa0, 0xf0, 0xa4, 0x28, 0x20, 0xc5, 0xeb, 0x77, 0xc1,
    0x08, 0x23, 0xee, 0xf3, 0xdf, 0x4e, 0x88, 0x0e, 0xa7, 0x39, 0xf0, 0xea,
    0xc1, 0x3e, 0x3c, 0xa8, 0xd6, 0x0c, 0x0a, 0x42, 0x88, 0x70, 0xef, 0xf7,
    0x8b, 0x20, 0x6e, 0x36, 0x44, 0x58, 0x66, 0xf3, 0x7f, 0xa1, 0x5c, 0xcc,
    0xfb, 0xf6, 0x99, 0xc1, 0xdf, 0xf0, 0x79, 0x09, 0x97, 0x49, 0x54, 0x3f,
    0xd6, 0x3e, 0xd5, 0x32, 0xf9, 0x9a, 0x43, 0xbe, 0xcb, 0x1c, 0x86, 0x04,
    0xbc, 0xbb, 0xa6, 0xc0, 0xc4, 0xca, 0x4c, 0x78, 0x78, 0x30, 0xae, 0xe1,
    0xf7, 0xfe, 0x2e, 0x37, 0xd3, 0x88, 0x0a, 0x26, 0x66, 0x3b, 0xd9, 0xfb,
    0x1e, 0x8f, 0xa9, 0x21, 0xc1, 0x7b, 0xfa, 0x45, 0xb8, 0xd7, 0x78, 0xee,
    0x74, 0x73, 0x08, 0x81, 0x60, 0xee, 0xfa, 0x26, 0xfe, 0x85, 0xba, 0xb9,
    0xbf, 0xdf, 0x53, 0xc2, 0x37, 0x91, 0xc5, 0xd8, 0xa7, 0x9a, 0x4b, 0xf8,
    0x6f, 0x97, 0xa9, 0x4d, 0x6d, 0x28, 0x3c, 0xab, 0xe7, 0x08, 0x41, 0xfc,
    0xde, 0x9a, 0xdf, 0xf9, 0xde, 0x10, 0x55, 0x75, 0xb8, 0xff, 0xee, 0xb6,
    0xa4, 0xf1, 0x7f, 0xdd, 0x7e, 0x51, 0x25, 0x22, 0xdf, 0x6f, 0xf7, 0xb6,
    0xf2, 0x2c, 0x39, 0xcf, 0x2e, 0xd6, 0x3f, 0xf9, 0xef, 0xfa, 0x17, 0xb8,
    0x0c, 0xd6, 0xff, 0x97, 0xbb, 0x0e, 0xb1, 0xe1, 0x36, 0xaf, 0x1f, 0xd1,
    0xb4, 0x83, 0x03, 0xfc, 0x90, 0x8b, 0x82, 0xfb, 0x7d, 0x67, 0x9f, 0x09,
    0x14, 0x58, 0x10, 0x3f, 0xb8, 0x9f, 0xf3, 0x8d, 0xc1, 0x49, 0x75, 0x62,
    0x25, 0x88, 0xa3, 0xdd, 0x49, 0x11, 0x11, 0xc2, 0xcf, 0x22, 0xe0, 0x7f,
    0x5d, 0x71, 0x42, 0x28, 0xa1, 0x01, 0xe6, 0xb1, 0xa6, 0xe7, 0xd8, 0xf4,
    0x96, 0x2f, 0x82, 0xb4, 0x20, 0x45, 0x09, 0xa9, 0xfe, 0x4b, 0x52, 0x4d,
    0x6a, 0xce, 0xb9, 0xaf, 0xef, 0x62, 0x86, 0x1f, 0x0d, 0xe0, 0x6f, 0x54,
    0x1f, 0x3c, 0x78, 0x77, 0x0f, 0x41, 0x21, 0x21, 0x02, 0x3b, 0xf8, 0xad,
    0x93, 0x7b, 0x22, 0x12, 0xc2, 0x1e, 0x7f, 0x16, 0x82, 0x44, 0x10, 0x77,
    0x87, 0xff, 0x29, 0x0a, 0x21, 0x8a, 0xf7, 0xd5, 0xd9, 0x59, 0x61, 0x32,
    0xbe, 0xbb, 0xfd, 0xce, 0xd0, 0x1e, 0x79, 0xcf, 0xbd, 0x39, 0x04, 0xb0,
    0xd5, 0x2f, 0x6c, 0x96, 0x18, 0x1f, 0x05, 0xc3, 0xe3, 0x09, 0xd9, 0x89,
    0x10, 0x78, 0xef, 0x2e, 0x20, 0x47, 0x7d, 0x47, 0x4c, 0x8f, 0xfb, 0xff,
    0x47, 0x85, 0xe3, 0xec, 0xf0, 0xcb, 0x1e, 0x58, 0x95, 0xfb, 0xb7, 0x99,
    0xa1, 0x0a, 0x2a, 0xfe, 0xfb, 0xfd, 0xfd, 0x56, 0x53, 0xeb, 0x18, 0x8e,
    0x37, 0x77, 0x39, 0xbe, 0xed, 0xeb, 0x42, 0xb8, 0x2a, 0x84, 0xfe, 0x7b,
    0x7c, 0x3b, 0x22, 0x46, 0xf2, 0xbf, 0xbb, 0x6f, 0x71, 0x25, 0xfd, 0x99,
    0x5d, 0x06, 0xe7, 0xf8, 0xfe, 0x76, 0xcb, 0x3d, 0x08, 0x2b, 0xfd, 0xbb,
    0x5e, 0xb9, 0x54, 0x71, 0x9c, 0xf7, 0xcf, 0x08, 0x71, 0xfe, 0xbc, 0x33,
    0x25, 0xba, 0xb0, 0x47, 0x99, 0xf3, 0x7f, 0x67, 0xb3, 0x22, 0xf8, 0x5f,
    0x6d, 0x13, 0x9b, 0x9c, 0x8e, 0xfd, 0x11, 0x81, 0xd6, 0xa8, 0x3e, 0xd7,
    0x1f, 0x03, 0x6d, 0x7b, 0x62, 0x60, 0x1c, 0x52, 0x25, 0x8c, 0x6f, 0xbe,
    0xaf, 0x05, 0xc1, 0x82, 0x24, 0x82, 0x7e, 0x6e, 0xfd, 0xa6, 0x39, 0xda,
    0xe1, 0x9e, 0x05, 0x5f, 0xe8, 0xe1, 0x9d, 0xcf, 0xb3, 0xe7, 0x44, 0x88,
    0x9b, 0x75, 0xf7, 0xf9, 0x13, 0xf6, 0x84, 0x81, 0xfd, 0xc6, 0x09, 0xef,
    0x3c, 0xe6, 0xfd, 0x0a, 0x1a, 0x21, 0xe9, 0xfd, 0xbf, 0xbb, 0x47, 0x1d,
    0x12, 0xcb, 0xf0, 0xfb, 0xf6, 0xbf, 0x77, 0xbf, 0x6d, 0xfd, 0x48, 0x87,
    0x47, 0xfc, 0xff, 0xdc, 0x3b, 0xf3, 0x9e, 0x3c, 0xec, 0x4e, 0x49, 0xf4,
    0x7c, 0xa7, 0x7f, 0x52, 0x30, 0x4d, 0xdd, 0x13, 0x70, 0xae, 0xc3, 0x49,
    0xfd, 0xec, 0x7f, 0xbf, 0x40, 0x9a, 0x30, 0xd2, 0x90, 0xd3, 0xb3, 0x9b,
    0xa8, 0xbc, 0xdc, 0x73, 0x9f, 0x3d, 0x50, 0x3b, 0x8d, 0xbf, 0x6e, 0x35,
    0x14, 0x5d, 0x79, 0x87, 0xed, 0x82, 0xaf, 0xdd, 0x2a, 0x6e, 0xef, 0xdd,
    0x41, 0x46, 0x34, 0xda, 0x89, 0xfb, 0x6f, 0xfb, 0x8a, 0xc9, 0xa1, 0xff,
    0x5d, 0xe7, 0x9e, 0x2b, 0xd7, 0xf8, 0xbf, 0x0f, 0xea, 0xe3, 0x24, 0xc3,
    0xb3, 0xe8, 0xc2, 0x3d, 0xff, 0xd1, 0xbb, 0x09, 0xf0, 0x10, 0xa3, 0xfc,
    0xff, 0xec, 0x17, 0xd9, 0x65, 0xea, 0x7c, 0xdb, 0xcf, 0xe6, 0x95, 0xe2,
    0xea, 0x69, 0x16, 0x79, 0xbd, 0xff, 0xdc, 0x32, 0x64, 0x16, 0x19, 0x87,
    0xc5, 0xf9, 0x2a, 0x91, 0xc3, 0xd9, 0x96, 0x86, 0x40, 0x9a, 0xca, 0x41,
    0x91, 0xba, 0xfb, 0xcf, 0x8b, 0x80, 0x60, 0xae, 0x3c, 0xfc, 0x9f, 0x49,
    0x52, 0xfc, 0x1f, 0xbb, 0x0f, 0xb4, 0x7c, 0x80, 0xf7, 0xbf, 0x2b, 0xbd,
    0xf9, 0x05, 0xf7, 0xdc, 0x2f, 0xf0, 0x87, 0x47, 0x9f, 0x7e, 0x99, 0x06,
    0x34, 0xfe, 0xdd, 0xfa, 0x15, 0xc1, 0x94, 0x34, 0x33, 0x3d, 0xd4, 0x5e,
    0xc8, 0xfc, 0xbe, 0xbf, 0x5e, 0x4f, 0x02, 0x2b, 0xf6, 0xff, 0xb3, 0x2e,
    0xa4, 0x44, 0xaf, 0xfb, 0x7e, 0x43, 0x39, 0xbd, 0x81, 0xcf, 0xf7, 0xb7,
    0xaf, 0xe5, 0xe9, 0xb4, 0x08, 0x5b, 0x86, 0xa0, 0x9f, 0x3f, 0x67, 0x21,
    0x16, 0x26, 0x8d, 0xff, 0xff, 0xcf, 0xdc, 0x4e, 0x48, 0x2f, 0x2b, 0x2c,
    0xdd, 0x48, 0x21, 0x45, 0x1e, 0xfe, 0x0f, 0x0a, 0x8e, 0x05, 0x6f, 0xcc,
    0x9d, 0x67, 0x53, 0x36, 0x18, 0x11, 0x7e, 0xee, 0x5a, 0xd2, 0x68, 0x57,
    0xb1, 0xcc, 0xc1, 0xd5, 0xad, 0xc9, 0x32, 0xef, 0x7d, 0xbe, 0x03, 0xd9,
    0x14, 0x66, 0xad, 0xe6, 0xf4, 0x27, 0x73, 0xe5, 0xdf, 0xfd, 0xde, 0x15,
    0x15, 0x92, 0x90, 0x5e, 0x85, 0x7c, 0x43, 0xec, 0x58, 0xdf, 0x26, 0x81,
    0xd8, 0x69, 0x18, 0x23, 0xff, 0x56, 0x3b, 0x22, 0x22, 0x88, 0x30, 0xfc,
    0xff, 0x76, 0xa7, 0xa4, 0x96, 0xfc, 0xd7, 0xdd, 0x70, 0xea, 0xfd, 0x2f,
    0xe6, 0x0d, 0xe1, 0xca, 0x0a, 0x76, 0xdb, 0x65, 0x22, 0x2e, 0xb7, 0xe2,
    0x0c, 0xd5, 0x21, 0xc4, 0xf4, 0xa8, 0xff, 0xee, 0xfe, 0x51, 0xc8, 0x87,
    0xe3, 0xb3, 0xef, 0xe7, 0x71, 0xc8, 0xbd, 0xd7, 0xdf, 0xc3, 0x0b, 0xe1,
    0xa5, 0xff, 0xcb, 0xf9, 0x45, 0xd9, 0x33, 0xb3, 0xcf, 0x98, 0xeb, 0x66,
    0xbf, 0xdf, 0xfe, 0xa7, 0x4a, 0xf2, 0x5b, 0xd3, 0xdf, 0x30, 0x37, 0x42,
    0xff, 0x77, 0xb7, 0xb9, 0xc4, 0xb3, 0x45, 0xcf, 0x77, 0xf7, 0x27, 0x97,
    0x5d, 0x2d, 0xf9, 0xda, 0x5d, 0x5b, 0xef, 0xeb, 0xcb, 0x72, 0x41, 0x01,
    0xba, 0x5c, 0xf5, 0x1f, 0x7a, 0x62, 0xe9, 0x76, 0xaf, 0x99, 0x90, 0xf9,
    0xe8, 0x3f, 0xbb, 0xb6, 0xbd, 0xed, 0x5a, 0xfd, 0xff, 0xd9, 0x7a, 0x1b,
    0x1d, 0x69, 0xa3, 0xbb, 0x53, 0xc6, 0x0f, 0xe4, 0x7f, 0x7f, 0x23, 0x31,
    0xde, 0xa0, 0x6b, 0xbe, 0x98, 0xa9, 0x8f, 0x1e, 0xf7, 0xed, 0x62, 0x0d,
    0x26, 0x86, 0xfa, 0xa6, 0x2f, 0x50, 0x71, 0x01, 0xe6, 0xae, 0xbd, 0xc8,
    0x66, 0x75, 0xd1, 0x97, 0x97, 0x8a, 0xea, 0xc1, 0x82, 0xed, 0xff, 0x55,
    0xf7, 0xf9, 0x18, 0xec, 0xe9, 0xcc, 0x4d, 0x3b, 0xff, 0xf5, 0xcf, 0xc1,
    0xde, 0x5a, 0x91, 0xc5, 0xfb, 0xdf, 0x91, 0x3e, 0xc7, 0x1e, 0xfe, 0xfb,
    0xb5, 0xd3, 0xf2, 0x81, 0x33, 0xef, 0xee, 0x33, 0xf2, 0xd9, 0xdb, 0x3e,
    0x61, 0x1b, 0x51, 0xf7, 0xbb, 0xfb, 0xcf, 0x71, 0xd8, 0x58, 0x27, 0xbf,
    0x98, 0x6e, 0xeb, 0x9e, 0x7b, 0x46, 0x6c, 0x26, 0xc7, 0x44, 0x56, 0x3e,
    0x2d, 0xbb, 0xd0, 0x51, 0x47, 0xfc, 0xaf, 0x9d, 0xd0, 0x33, 0x09, 0x84,
    0x6a, 0x79, 0xbf, 0x3f, 0x95, 0xf2, 0xa7, 0x99, 0xef, 0xdb, 0xaa, 0x37,
    0x64, 0x7f, 0xbe, 0x7d, 0x87, 0x72, 0xd8, 0xfb, 0xf7, 0x5d, 0x4c, 0xdb,
    0x0b, 0x63, 0x7e, 0xef, 0xa8, 0x24, 0x81, 0x93, 0x84, 0x10, 0x66, 0x38,
    0x4f, 0xe8, 0x47, 0x13, 0x82, 0xb1, 0x42, 0xec, 0x1f, 0xeb, 0xfa, 0x76,
    0x44, 0x08, 0xc1, 0x29, 0x7a, 0xbf, 0x84, 0x08, 0x33, 0x74, 0xfe, 0xba,
    0xad, 0x7f, 0x99, 0x20, 0x42, 0x33, 0xfc, 0x8b, 0x7c, 0x9c, 0x95, 0xfb,
    0xbf, 0xe7, 0x13, 0x5a, 0x20, 0xe4, 0xf3, 0xf8, 0x09, 0xb3, 0x37, 0x3e,
    0xdc, 0x5c, 0x66, 0x38, 0xc6, 0x07, 0xcf, 0x10, 0x49, 0x1d, 0xc1, 0xa0,
    0xef, 0x63, 0x9b, 0x78, 0xf2, 0x85, 0x08, 0x32, 0xe7, 0xfe, 0x0d, 0xed,
    0x50, 0x76, 0xcc, 0xb9, 0x07, 0xc5, 0xf0, 0xf3, 0x5d, 0x5f, 0x34, 0x8c,
    0x7d, 0x54, 0xcb, 0x7e, 0x36, 0xad, 0x94, 0xfc, 0xdc, 0xff, 0xa1, 0x63,
    0x99, 0x98, 0xa6, 0x31, 0x2e, 0xb3, 0xff, 0x88, 0x9e, 0x92, 0xe1, 0xce,
    0xe7, 0xbd, 0xcd, 0xf2, 0xdc, 0x4a, 0x3e, 0xbc, 0xbd, 0x85, 0x1c, 0xc8,
    0xdc, 0xb1, 0xf7, 0x1f, 0x14, 0xa2, 0x8e, 0xfe, 0x7f, 0xd9, 0x90, 0x68,
    0x83, 0x7b, 0xfe, 0x42, 0x16, 0x42, 0xbe, 0x83, 0x2d, 0x96, 0x66, 0xa8,
    0xbd, 0x77, 0xdd, 0xec, 0x84, 0xc8, 0x08, 0xaa, 0x63, 0x3f, 0xce, 0x24,
    0xd3, 0x9e, 0x0b, 0xf6, 0x87, 0xf8, 0xa1, 0xea, 0x7f, 0xb7, 0x47, 0x81,
    0x87, 0x5a, 0x9b, 0x8b, 0x21, 0xe7, 0x15, 0x21, 0x15, 0x1f, 0x74, 0x41,
    0x84, 0xa8, 0xf0, 0x8d, 0xcf, 0xdc, 0x8f, 0x09, 0xa3, 0x6e, 0x42, 0x84,
    0xff, 0xbb, 0x9b, 0xe0, 0x1f, 0x92, 0xf9, 0xd9, 0xae, 0x1a, 0xad, 0x7f,
    0x3e, 0xcb, 0x6f, 0xc2, 0xf0, 0x05, 0xa0, 0x29, 0x06, 0x74, 0x57, 0xa5,
    0x37, 0xf0, 0x89, 0x32, 0xa6, 0x39, 0xb6, 0xc2, 0x08, 0xd8, 0xfd, 0x8f,
    0x41, 0x20, 0xa2, 0xc2, 0xe7, 0xba, 0x15, 0x81, 0xd5, 0x32, 0xc6, 0xfd,
    0x9c, 0x2c, 0xfc, 0x30, 0xc5, 0x7d, 0x47, 0x8c, 0x14, 0x45, 0xa7, 0x38,
    0x49, 0x22, 0xdc, 0x1d, 0xd4, 0xf9, 0xef, 0xfe, 0x82, 0x4c, 0xf2, 0xb5,
    0x00, 0xf3, 0x37, 0xb9, 0x2d, 0x44, 0x35, 0xf6, 0x7e, 0xc3, 0x41, 0x83,
    0x5c, 0xd6, 0x3f, 0xe7, 0xa1, 0x11, 0xd7, 0x13, 0xae, 0xec, 0x57, 0x39,
    0x81, 0x2c, 0x62, 0x27, 0xe4, 0x94, 0x3c, 0xc2, 0xff, 0x6d, 0xbc, 0xb1,
    0xe8, 0x74, 0x76, 0x06, 0xec, 0xbb, 0xf8, 0x32, 0x4a, 0xbe, 0x77, 0x8e,
    0x22, 0x11, 0xdc, 0x92, 0xf4, 0xaf, 0x77, 0x57, 0xfa, 0xb2, 0x12, 0x26,
    0xa9, 0x95, 0xc6, 0xdb, 0xe3, 0x5d, 0x64, 0x63, 0x86, 0xdd, 0x14, 0xa0,
    0x5f, 0x6b, 0xbf, 0x02, 0xa2, 0xeb, 0xa2, 0x20, 0xb4, 0x3f, 0x94, 0x5e,
    0x06, 0x67, 0xff, 0x43, 0x0d, 0x46, 0xb5, 0x13, 0x3b, 0x5e, 0x81, 0x6b,
    0x7d, 0x48, 0xf3, 0xcb, 0x10, 0xfa, 0x87, 0xa8, 0xbb, 0xbd, 0x1e, 0x54,
    0x08, 0x36, 0x84, 0x72, 0x7d, 0xc1, 0x5d, 0xfd, 0xfc, 0x38, 0xd7, 0xef,
    0xfb, 0x35, 0xd2, 0x1d, 0x52, 0x7f, 0xee, 0x7c, 0x33, 0x4b, 0x5d, 0xfc,
    0xbd, 0xa9, 0xd0, 0x78, 0xe3, 0x8e, 0xff, 0xc1, 0x45, 0xbe, 0xbf, 0x0e,
    0xcf, 0xc5, 0x57, 0x17, 0x01, 0x8f, 0xd7, 0x1e, 0x88, 0x4d, 0x57, 0xd9,
    0x0f, 0x5a, 0x42, 0x08, 0xe7, 0x3a, 0x57, 0x9f, 0xf9, 0x7a, 0x76, 0xa1,
    0x94, 0xa9, 0xc4, 0xfc, 0x41, 0x77, 0x0b, 0x73, 0x04, 0x73, 0xf3, 0xbc,
    0xe0, 0xa3, 0x35, 0x53, 0x74, 0x01, 0x41, 0xfb, 0xa9, 0x8b, 0xfe, 0xc7,
    0xad, 0x19, 0x06, 0x7a, 0xc3, 0x08, 0x69, 0x17, 0x10, 0xff, 0xed, 0x0b,
    0x3a, 0x91, 0xc4, 0x9b, 0xcf, 0x23, 0x42, 0xc5, 0x80, 0x66, 0x98, 0xff,
    0xfc, 0x8a, 0x26, 0x22, 0x67, 0x6f, 0x6f, 0x0e, 0x6e, 0x8b, 0x41, 0xfb,
    0xd9, 0xec, 0x60, 0x22, 0xfa, 0xfe, 0x7b, 0x63, 0x63, 0x1c, 0x41, 0xa7,
    0xc5, 0xeb, 0x3d, 0x55, 0x36, 0xf6, 0x87, 0xb8, 0x11, 0xf5, 0x00, 0xf0,
    0x97, 0x89, 0xeb, 0x47, 0xc2, 0xfb, 0xfe, 0x3e, 0x11, 0x6c, 0x85, 0xc2,
    0x4a, 0xde, 0x9d, 0xdf, 0x7d, 0xd3, 0xa7, 0x37, 0x8f, 0x71, 0x9d, 0x6c,
    0x3f, 0xdd, 0xe1, 0x38, 0xe4, 0xd1, 0xff, 0xdf, 0xee, 0x1e, 0xc8, 0xf6,
    0xef, 0xad, 0x5e, 0x7f, 0xc4, 0x7f, 0xd8, 0xad, 0xa8, 0xcc, 0x30, 0x18,
    0xe6, 0xbc, 0x90, 0x52, 0x08, 0xba, 0x67, 0xfd, 0x30, 0x21, 0x05, 0x0d,
    0x23, 0x86, 0xa3, 0x9b, 0x10, 0xc2, 0x35, 0x7f, 0x6e, 0xfe, 0x72, 0x5c,
    0xf3, 0xed, 0xf8, 0xf7, 0xba, 0xeb, 0x2e, 0x9a, 0x76, 0x7c, 0xde, 0xfb,
    0x49, 0x81, 0x4e, 0xf1, 0x6d, 0x90, 0x9c, 0x65, 0x3b, 0xee, 0x17, 0xa5,
    0x4b, 0xce, 0xb3, 0xb7, 0xdd, 0xb3, 0x4b, 0x08, 0x17, 0xfe, 0x10, 0x37,
    0xbf, 0xf3, 0x24, 0xf9, 0xa3, 0x7b, 0x25, 0x0f, 0xf9, 0x84, 0xc5, 0xfc,
    0x7f, 0x6d, 0x8f, 0x80, 0xfa, 0xaf, 0xdf, 0x9f, 0xc3, 0x7e, 0x4b, 0xef,
    0x5f, 0xc6, 0xa4, 0x22, 0x8e, 0x1f, 0xd5, 0xd8, 0x14, 0x7f, 0xb2, 0x8d,
    0xb0, 0x42, 0x88, 0x10, 0x94, 0x3c, 0xfd, 0x3e, 0xe6, 0x26, 0x80, 0xf3,
    0x9e, 0x3f, 0xc7, 0x14, 0xc9, 0x4f, 0x78, 0xef, 0xf0, 0x70, 0x38, 0xb2,
    0xbd, 0x13, 0x2a, 0x65, 0xa0, 0x87, 0xf9, 0xb3, 0xe0, 0x04, 0xd9, 0xdd,
    0x73, 0xfb, 0x5d, 0x67, 0x7a, 0x89, 0x7f, 0xdd, 0x3d, 0xbf, 0x63, 0xe3,
    0xfd, 0xef, 0x76, 0xbf, 0x9f, 0xd6, 0xf7, 0xb3, 0x76, 0xad, 0x2d, 0xf2,
    0x9f, 0xd0, 0xc3, 0xef, 0x39, 0xe5, 0xa3, 0xd5, 0xe6, 0xd0, 0xf8, 0xcc,
    0x9e, 0x57, 0x1d, 0xe9, 0xe4, 0xfe, 0x77, 0x9e, 0xc4, 0x5d, 0x75, 0xb3,
    0xe0, 0x41, 0xf7, 0xaa, 0x2f, 0xf7, 0xf7, 0xfb, 0x09, 0x89, 0xfa, 0x9a,
    0x8d, 0x34, 0x9f, 0xdf, 0xdd, 0xb4, 0xfb, 0x7e, 0xd3, 0x27, 0x5f, 0x30,
    0x7b, 0x97, 0x7c, 0xb6, 0x84, 0xde, 0xff, 0xbb, 0x6d, 0xf2, 0x46, 0x14,
    0x94, 0xb7, 0xf1, 0xae, 0x43, 0x0d, 0xbc, 0x75, 0x8f, 0x53, 0x7c, 0x2b,
    0x3a, 0xfa, 0x6f, 0x59, 0x61, 0xf7, 0xd9, 0x76, 0x3f, 0xa8, 0xca, 0x17,
    0xba, 0x6f, 0xfb, 0x83, 0xbc, 0x3e, 0x7e, 0xdf, 0x37, 0x80, 0xfb, 0xd4,
    0x7e, 0xfb, 0xbb, 0xa3, 0x11, 0x2d, 0x70, 0xff, 0xec, 0x56, 0xf7, 0xfd,
    0x30, 0xe7, 0x0c, 0x47, 0xb3, 0xd0, 0x5f, 0x77, 0x69, 0x16, 0x86, 0x06,
    0x97, 0xc6, 0xff, 0xbb, 0x5e, 0xd1, 0xeb, 0xce, 0xf5, 0x3f, 0x22, 0xf8,
    0xf1, 0xbf, 0xcc, 0xc3, 0x0a, 0x65, 0x96, 0xdb, 0x59, 0x90, 0xee, 0xa9,
    0xe3, 0xea, 0x17, 0x09, 0x69, 0x72, 0xe6, 0xaf, 0x39, 0xdb, 0xdd, 0x5f,
    0x8b, 0x7f, 0x70, 0x1b, 0x5c, 0x76, 0x3b, 0xe8, 0xbe, 0x7e, 0xbf, 0x42,
    0x04, 0x41, 0xe2, 0x48, 0xae, 0xfe, 0xa7, 0xd8, 0xca, 0xde, 0x75, 0xa7,
    0xa8, 0x4d, 0x99, 0xc5, 0xff, 0x0b, 0x5e, 0xca, 0xbf, 0xab, 0x9b, 0xf6,
    0xd9, 0x82, 0x7e, 0x27, 0xff, 0x7c, 0xed, 0xd8, 0x5f, 0x8f, 0x07, 0xd6,
    0x43, 0xbd, 0xf4, 0x66, 0x17, 0x6a, 0x5f, 0x3f, 0x19, 0xe5, 0xcb, 0x3e,
    0x76, 0xea, 0x90, 0x7f, 0xea, 0xd3, 0xfb, 0xe1, 0x91, 0xa8, 0xda, 0x97,
    0xbb, 0x4e, 0xe7, 0x59, 0xd0, 0x5d, 0xff, 0x73, 0x9d, 0x84, 0x98, 0xbb,
    0xdd, 0x8f, 0x1b, 0x5b, 0xbf, 0x5f, 0xb5, 0x1f, 0x4a, 0x6c, 0xd1, 0xdf,
    0xca, 0x4c, 0xe6, 0xfe, 0x7d, 0x5b, 0x8f, 0xe5, 0x83, 0x4e, 0xdf, 0xde,
    0xff, 0x9e, 0x45, 0xce, 0xf1, 0xa6, 0xed, 0x67, 0xe6, 0xfc, 0x9f, 0x73,
    0x5a, 0x86, 0x39, 0x60, 0x0e, 0xdf, 0xcf, 0x65, 0x73, 0xff, 0xda, 0x05,
    0x43, 0xbe, 0xd8, 0x96, 0xfa, 0xfd, 0x75, 0xbb, 0x18, 0xb2, 0x18, 0x11,
    0x1a, 0xfb, 0xc2, 0x39, 0xc9, 0x1c, 0xd9, 0x34, 0xbc, 0x40, 0x5d, 0x16,
    0x1c, 0xb8, 0x53, 0x86, 0xd0, 0xbf, 0x48, 0x92, 0xdd, 0xbf, 0xa3, 0x78,
    0x62, 0x0b, 0xe3, 0x0c, 0x77, 0xee, 0x23, 0x3a, 0x09, 0xf0, 0xf7, 0xe9,
    0xe2, 0x7e, 0x48, 0xe4, 0x77, 0xba, 0x3f, 0x52, 0xe2, 0xa2, 0xd9, 0xf0,
    0x9f, 0x17, 0x97, 0x1c, 0x7f, 0xb6, 0x19, 0xce, 0x11, 0x21, 0x80, 0xcf,
    0xee, 0x80, 0xab, 0xf0, 0xfb, 0xb3, 0xff, 0x67, 0xc6, 0x43, 0x13, 0x87,
    0xb9, 0x71, 0xe5, 0x40, 0xef, 0x5c, 0xf7, 0xe7, 0x3a, 0xaf, 0xd0, 0x22,
    0x7c, 0x87, 0x99, 0x9f, 0x6c, 0xaf, 0x77, 0xa8, 0xef, 0x35, 0xc3, 0x0d,
    0x41, 0xf9, 0x7d, 0x86, 0xf3, 0xb8, 0x62, 0x82, 0x70, 0xbf, 0x73, 0xe6,
    0x92, 0xca, 0x6f, 0x17, 0xb3, 0xde, 0x7d, 0x72, 0x26, 0x47, 0x3d, 0x7f,
    0xb7, 0x33, 0x84, 0x2b, 0x0b, 0x51, 0x1b, 0x5d, 0x55, 0x7a, 0xdd, 0x8f,
    0xdd, 0xa6, 0x1b, 0x5e, 0x9b, 0xb6, 0x1d, 0x60, 0xdf, 0x25, 0xda, 0xde,
    0xdb, 0xda, 0x03, 0x96, 0x04, 0x28, 0x43, 0x24, 0xde, 0x39, 0xb7, 0x61,
    0x66, 0xa3, 0x50, 0x08, 0x64, 0x9b, 0xed, 0xc5, 0x0b, 0xea, 0x08, 0xfa,
    0xf9, 0x7d, 0x56, 0xb0, 0xcd, 0xd0, 0xe3, 0xff, 0x39, 0x2c, 0x9f, 0xc8,
    0x7b, 0x77, 0xf9, 0x4d, 0xb8, 0x6c, 0x64, 0x7b, 0x3b, 0x7f, 0x0d, 0xef,
    0xb6, 0xf7, 0x1f, 0x2e, 0xe4, 0x0a, 0xd3, 0x7f, 0x77, 0xf7, 0x2a, 0x14,
    0xc7, 0xdd, 0xb6, 0x7a, 0x3f, 0xfc, 0x77, 0x9d, 0x42, 0x48, 0xc8, 0xcf,
    0x07, 0x8f, 0xef, 0x88, 0x18, 0xa5, 0xdb, 0xfd, 0xb7, 0x70, 0x76, 0x40,
    0x42, 0x90, 0x3a, 0x94, 0x3f, 0x9c, 0xb9, 0xdf, 0xf2, 0xec, 0xb2, 0x15,
    0xe1, 0x1e, 0xf3, 0xbc, 0xf7, 0xef, 0xd1, 0x62, 0x7e, 0x32, 0xdf, 0xf7,
    0x17, 0x93, 0xa1, 0xdf, 0x4f, 0xbb, 0x58, 0xc4, 0x83, 0xfd, 0x6b, 0x9c,
    0x59, 0xb4, 0x1f, 0xb4, 0x77, 0xc1, 0x58, 0xf8, 0x75, 0x7d, 0xdf, 0xfa,
    0x45, 0x34, 0x84, 0xa9, 0x9d, 0x8e, 0x32, 0xcf, 0x7d, 0x8e, 0x7e, 0x30,
    0x53, 0x55, 0xba, 0x03, 0x1a, 0xec, 0x07, 0x52, 0x83, 0xd0, 0xf7, 0xdd,
    0xe6, 0xf3, 0x5d, 0x14, 0x09, 0xc1, 0xa0, 0xbf, 0x5d, 0x08, 0x69, 0xae,
    0x8f, 0xbb, 0xcf, 0x82, 0x6c, 0x37, 0xa6, 0xf6, 0xfe, 0xbc, 0x28, 0x42,
    0x94, 0x1f, 0xbb, 0xc9, 0x9b, 0x0a, 0x81, 0x77, 0xb6, 0x00, 0xa0, 0xa8,
    0x95, 0x7c, 0xdf, 0x76, 0x21, 0x18, 0x91, 0xe1, 0xc2, 0x43, 0xf6, 0x66,
    0xd6, 0x21, 0x68, 0xe6, 0x5e, 0x9c, 0x17, 0x89, 0x15, 0xd3, 0xbf, 0xce,
    0xbb, 0xf8, 0x2f, 0x39, 0xa6, 0x63, 0xfb, 0x8f, 0xa5, 0x57, 0x0a, 0xce,
    0x25, 0x37, 0x50, 0xb8, 0xff, 0x9f, 0xcd, 0x17, 0x2e, 0x67, 0x25, 0x0a,
    0x34, 0xef, 0xcf, 0xd5, 0xd9, 0x22, 0xb6, 0xd9, 0xdf, 0x24, 0x37, 0x08,
    0xf9, 0x6f, 0xd7, 0x9b, 0x17, 0x6a, 0xfe, 0xee, 0xf8, 0xa7, 0xa5, 0x1d,
    0x03, 0xf7, 0xe1, 0x25, 0x42, 0xfc, 0x7c, 0x7e, 0xc4, 0xb9, 0x07, 0x19,
    0x8c, 0xfb, 0x76, 0x9d, 0x5d, 0x8d, 0xdf, 0xfd, 0xbe, 0xfb, 0x35, 0x4b,
    0xe6, 0xbf, 0xe1, 0x1c, 0x43, 0x48, 0xfb, 0xdb, 0xea, 0xe9, 0x28, 0x74,
    0x62, 0x6e, 0xdb, 0x75, 0x0f, 0xf7, 0x5d, 0x98, 0xf7, 0xf7, 0xde, 0x0d,
    0x2a, 0x33, 0x9d, 0xf3, 0x17, 0x39, 0x0a, 0x75, 0xdc, 0xaf, 0x00, 0x68,
    0x89, 0x94, 0x9f, 0x6f, 0x62, 0x08, 0xf7, 0xed, 0x44, 0xfe, 0xe1, 0xce,
    0x0e, 0xe0, 0x9f, 0xec, 0x96, 0x90, 0x23, 0xda, 0x6f, 0xf6, 0x9a, 0x6f,
    0xd4, 0x3c, 0xf4, 0xff, 0xbc, 0x3b, 0x13, 0xf8, 0x22, 0x6f, 0x8c, 0xf7,
    0xc5, 0x5e, 0xa8, 0xc7, 0xef, 0xa5, 0x70, 0x48, 0x58, 0xa6, 0x3a, 0x55,
    0xb6, 0x04, 0x6f, 0xca, 0x9c, 0xff, 0x74, 0x03, 0x00, 0x09, 0xf5, 0x12,
    0xdf, 0xb8, 0x85, 0x70, 0x42, 0x9c, 0xb5, 0xf4, 0x93, 0xff, 0x2b, 0x43,
    0xf4, 0xfe, 0x6e, 0xf9, 0xad, 0x76, 0x33, 0x7f, 0x39, 0xfb, 0x21, 0x63,
    0x5d, 0xd6, 0xdf, 0xee, 0x07, 0x34, 0x69, 0x54, 0xe1, 0x77, 0x1f, 0xa2,
    0x6e, 0x2e, 0xfa, 0x33, 0x0b, 0xd4, 0x36, 0xaf, 0x9d, 0x1d, 0xb9, 0x57,
    0xd0, 0xe3, 0xfd, 0x73, 0x5f, 0x72, 0x1c, 0x64, 0x3b, 0x5a, 0xbe, 0xad,
    0x50, 0xf2, 0x39, 0x39, 0xc6, 0xc6, 0x71, 0x10, 0x21, 0xf8, 0x77, 0x64,
    0xff, 0x23, 0xd3, 0x19, 0xea, 0x7e, 0x73, 0xc2, 0xa2, 0xd8, 0xe0, 0xf8,
    0x3f, 0x77, 0x55, 0x36, 0x0d, 0x98, 0xea, 0xef, 0xef, 0xcc, 0xcb, 0x57,
    0xa8, 0x2f, 0xef, 0x6f, 0x9b, 0xe6, 0xcf, 0xa7, 0x1b, 0x33, 0x27, 0xe2,
    0xf6, 0xf3, 0x9a, 0xd8, 0x84, 0xef, 0xf7, 0x3d, 0x3d, 0x6c, 0xf3, 0xdc,
    0x60, 0xff, 0x6e, 0x41, 0x88, 0x92, 0x1f, 0x6f, 0x6e, 0xda, 0x25, 0x42,
    0xfb, 0xdd, 0xfd, 0xee, 0x08, 0x10, 0x06, 0xe3, 0x31, 0xfe, 0x9b, 0x3b,
    0xf0, 0x7b, 0x77, 0xf8, 0x2e, 0xa1, 0x77, 0x33, 0xcc, 0x53, 0xb7, 0x46,
    0x90, 0xef, 0xab, 0xae, 0x32, 0x33, 0xb8, 0x42, 0xe7, 0xff, 0x0d, 0x8b,
    0x1a, 0x8f, 0x97, 0xc0, 0x9f, 0xc5, 0x95, 0xb7, 0xff, 0x76, 0x6f, 0x41,
    0xd0, 0x90, 0x77, 0xf9, 0xbe, 0x7c, 0x4f, 0x49, 0xd4, 0xef, 0xef, 0x1b,
    0x62, 0x3c, 0x72, 0xe7, 0xdf, 0x43, 0xff, 0x05, 0x7b, 0xb7, 0xab, 0x66,
    0xff, 0xf7, 0xf6, 0xbb, 0x5e, 0x6d, 0xd1, 0x82, 0x75, 0xcc, 0xa7, 0xfc,
    0xfe, 0x7d, 0x6e, 0x8b, 0x00, 0x14, 0xe8, 0x21, 0x30, 0xfa, 0xdf, 0x47,
    0x18, 0xd7, 0x2f, 0x5d, 0x05, 0x99, 0xc1, 0xdd, 0xf7, 0xab, 0x3b, 0xbb,
    0xd9, 0xc5, 0xee, 0xee, 0xfe, 0xef, 0x1e, 0x78, 0xae, 0xf7, 0x9e, 0x27,
    0xfd, 0xd6, 0xfd, 0x5e, 0x6f, 0x66, 0xc7, 0xf4, 0xdb, 0x5f, 0xb7, 0xb4,
    0x08, 0x62, 0xce, 0x76, 0x0b, 0x0f, 0x64, 0xf1, 0x23, 0xff, 0xe4, 0x17,
    0xf7, 0xc3, 0xab, 0x0d, 0x79, 0x24, 0xd6, 0xc1, 0x9a, 0xf6, 0x3b, 0xf7,
    0x43, 0x30, 0x2e, 0x85, 0x4d, 0xf0, 0xef, 0xb9, 0x97, 0x82, 0xff, 0xf6,
    0xfe, 0xdd, 0x7a, 0x44, 0x12, 0xfb, 0x76, 0xfe, 0x4a, 0x0a, 0x7a, 0xdc,
    0xdd, 0x97, 0x30, 0x56, 0x86, 0xff, 0x7f, 0xc6, 0x2c, 0x92, 0x09, 0x42,
    0xf6, 0xaa, 0xca, 0x59, 0xac, 0x59, 0xdd, 0xd9, 0xeb, 0x21, 0xd1, 0x5f,
    0x88, 0xc7, 0x33, 0x3e, 0x48, 0x7a, 0xb3, 0x84, 0xfb, 0xdd, 0xad, 0xd9,
    0x18, 0x2c, 0x84, 0xb8, 0x9b, 0x6f, 0x38, 0xc6, 0xad, 0x3b, 0xd2, 0xc5,
    0xe3, 0x8b, 0xe2, 0xdf, 0xb5, 0xc1, 0x76, 0x4a, 0x80, 0x34, 0xef, 0x3d,
    0x39, 0x14, 0x05, 0xd7, 0x98, 0xa3, 0xbe, 0x6b, 0xa8, 0xc3, 0x7c, 0xf7,
    0x5e, 0x5f, 0x2c, 0xea, 0xb6, 0x6c, 0xcf, 0xc3, 0xdb, 0xe2, 0xc3, 0xb1,
    0xff, 0xee, 0x8b, 0xe2, 0x5b, 0x23, 0x0f, 0x18, 0xa9, 0x8e, 0xa8, 0x5f,
    0x1f, 0x0f, 0x86, 0x92, 0xcf, 0xc3, 0xe1, 0x01, 0xce, 0xf3, 0xb7, 0xee,
    0xb5, 0x73, 0xf0, 0xfe, 0x7d, 0x0d, 0xea, 0x63, 0xf7, 0xf1, 0xfb, 0x6c,
    0x82, 0xe3, 0x3d, 0xdb, 0x97, 0x22, 0xe4, 0xbb, 0xaf, 0xdd, 0x22, 0xc1,
    0xae, 0x74, 0xff, 0xe7, 0x27, 0xba, 0x9d, 0xf6, 0x39, 0x27, 0xb0, 0xb6,
    0xfb, 0xdb, 0xfb, 0x4f, 0x22, 0x91, 0x22, 0x3f, 0xcf, 0x5e, 0x3b, 0xef,
    0x59, 0x6f, 0xad, 0x39, 0x9b, 0x9c, 0xf8, 0x77, 0x4c, 0xb1, 0xdd, 0x28,
    0x9c, 0x3b, 0xff, 0x66, 0x55, 0x60, 0x84, 0xf6, 0xa2, 0x5b, 0x02, 0xed,
    0xca, 0x3b, 0xd8, 0xb7, 0x9a, 0x34, 0x39, 0xc2, 0xef, 0xad, 0xe2, 0x86,
    0x12, 0x41, 0x76, 0xef, 0xff, 0x20, 0xe6, 0x72, 0x33, 0xf7, 0x79, 0xe7,
    0xbe, 0xf0, 0xe0, 0xff, 0xef, 0x7a, 0x85, 0x30, 0x7c, 0xeb, 0xed, 0xe7,
    0x79, 0x26, 0xbe, 0x97, 0x8f, 0x58, 0xa8, 0xe0, 0x3a, 0xe3, 0x5e, 0xdf,
    0x77, 0x27, 0x9b, 0xd3, 0x93, 0xc2, 0x29, 0x33, 0xe8, 0xf0, 0x88, 0xf3,
    0xdf, 0x22, 0xc1, 0x18, 0x73, 0xea, 0x02, 0x37, 0x0d, 0x6d, 0x2e, 0x19,
    0x16, 0x10, 0xae, 0x26, 0x26, 0xf9, 0x28, 0x9c, 0x6f, 0x82, 0xd0, 0xaf,
    0x22, 0x88, 0x60, 0xc4, 0xdc, 0xb4, 0xbf, 0x72, 0x76, 0x04, 0x05, 0x0f,
    0x97, 0x28, 0x2b, 0x2e, 0x86, 0x08, 0x6b, 0x14, 0xac, 0xbb, 0x98, 0x04,
    0xf1, 0xdb, 0x5d, 0x5f, 0x42, 0x88, 0x60, 0x41, 0x85, 0x77, 0xb5, 0xdf,
    0x8a, 0xdb, 0xac, 0xff, 0xdd, 0x7d, 0x17, 0xb9, 0xf8, 0x75, 0xf8, 0xbb,
    0xf4, 0x6d, 0x8d, 0x7f, 0xa3, 0x16, 0xd9, 0xb8, 0x07, 0x9f, 0xb1, 0x3d,
    0x02, 0x1f, 0x3b, 0xdf, 0xd9, 0x43, 0x0e, 0x06, 0x07, 0xfa, 0xe7, 0x79,
    0x30, 0xb5, 0x85, 0x60, 0xbc, 0x9f, 0xad, 0xc8, 0x36, 0xde, 0x7f, 0x77,
    0x1f, 0x26, 0x4a, 0x78, 0xe6, 0xf8, 0x43, 0x73, 0x48, 0x3c, 0xbe, 0x0b,
    0x21, 0x43, 0x52, 0x12, 0x7e, 0xdf, 0x07, 0x5f, 0xeb, 0x14, 0x35, 0xe7,
    0xf3, 0xaa, 0x92, 0xf7, 0x96, 0xef, 0xd7, 0x0e, 0x03, 0xb5, 0xa0, 0x4e,
    0x67, 0x4e, 0x9e, 0x48, 0x63, 0xe9, 0x7d, 0xbf, 0x83, 0x1d, 0x0a, 0x23,
    0x7c, 0xf7, 0xbd, 0x22, 0xe5, 0x6e, 0x7e, 0x3d, 0xb3, 0x16, 0xcb, 0xe6,
    0x9f, 0xeb, 0x08, 0x86, 0x4c, 0x6c, 0xba, 0x4b, 0x96, 0xd9, 0x5b, 0x1a,
    0xf2, 0xf8, 0x6b, 0x31, 0x8a, 0xaa, 0xaa, 0x86, 0x33, 0xc6, 0x07, 0x1e,
    0x9c, 0x8c, 0x38, 0x66, 0xfe, 0x2a, 0x4c, 0x7d, 0xac, 0x19, 0x7a, 0x6f,
    0xc5, 0x41, 0xfe, 0xaa, 0xe9, 0x10, 0xcf, 0x6f, 0xca, 0x1e, 0x41, 0x61,
    0x07, 0x8a, 0x7f, 0xb7, 0x30, 0x4f, 0x89, 0x1f, 0xdc, 0x07, 0x91, 0x6a,
    0x60, 0x37, 0xfe, 0x5f, 0xd7, 0x1d, 0x02, 0x12, 0xbb, 0xdf, 0x73, 0x21,
    0x61, 0xff, 0x1e, 0xd7, 0x8f, 0x6a, 0xec, 0xc5, 0x7d, 0x3e, 0x2b, 0xec,
    0xa8, 0x44, 0xdb, 0xad, 0x67, 0x39, 0xc7, 0x5a, 0x21, 0x1a, 0xae, 0x1c,
    0xb5, 0xc5, 0xbb, 0xf9, 0x77, 0x0b, 0x91, 0xf1, 0x98, 0x31, 0xa4, 0xff,
    0xba, 0xdb, 0x09, 0x2a, 0x0c, 0xff, 0xad, 0xeb, 0x61, 0x1c, 0x2a, 0x87,
    0x37, 0x44, 0x84, 0xd9, 0xbf, 0xff, 0x76, 0x1f, 0x48, 0xf5, 0xc1, 0xec,
    0xb0, 0xdf, 0xef, 0x8b, 0xe2, 0x43, 0xb8, 0x7d, 0xbd, 0x9f, 0x1d, 0xfe,
    0xb7, 0x80, 0x58, 0xca, 0xa4, 0xf2, 0x50, 0xe5, 0x18, 0x6a, 0x9e, 0x7c,
    0xb7, 0xf2, 0x4d, 0x7e, 0x60, 0x27, 0x09, 0xbe, 0xd9, 0xf7, 0xa2, 0x92,
    0x95, 0xfe, 0x31, 0x57, 0x70, 0xce, 0x57, 0xba, 0x9c, 0x8f, 0x4f, 0x11,
    0x61, 0x20, 0x2f, 0x7e, 0x27, 0xc0, 0x7a, 0x28, 0xa9, 0x9e, 0x7c, 0xcf,
    0xd0, 0x8c, 0xdd, 0x98, 0xf7, 0xdd, 0x22, 0x42, 0x91, 0xff, 0x77, 0xbb,
    0x0e, 0x6b, 0x81, 0x41, 0xad, 0xef, 0xce, 0xfe, 0xce, 0x4b, 0xf8, 0x6f,
    0x02, 0x72, 0x0c, 0xfe, 0xed, 0xbb, 0x1b, 0x39, 0x84, 0xb1, 0x9f, 0x77,
    0xee, 0x76, 0xdf, 0xa0, 0x7d, 0x3d, 0x27, 0x04, 0x64, 0x52, 0x40, 0xb3,
    0x19, 0xac, 0x7a, 0x62, 0xcf, 0xdc, 0x5f, 0x30, 0x8b, 0x82, 0x0c, 0x62,
    0x92, 0xff, 0xb3, 0xce, 0x4c, 0xe1, 0xac, 0xf1, 0xf8, 0x5f, 0x8f, 0x35,
    0x06, 0xe7, 0xfe, 0xfd, 0x01, 0x05, 0x16, 0x1c, 0xe0, 0xf8, 0x87, 0x3d,
    0x39, 0xfa, 0x8e, 0x3b, 0xd8, 0xb0, 0x99, 0x60, 0xf8, 0x7f, 0xd7, 0x84,
    0x2e, 0x50, 0x27, 0xda, 0x4f, 0xb7, 0x1b, 0xa9, 0xdb, 0xfb, 0xf5, 0xbd,
    0x06, 0xd6, 0xf7, 0x96, 0xc3, 0xae, 0xe7, 0xa0, 0xc2, 0xce, 0xbd, 0xfd,
    0x14, 0x4c, 0x08, 0x83, 0x73, 0xfe, 0xd0, 0x03, 0x0b, 0x04, 0x9c, 0x1f,
    0x45, 0x47, 0x04, 0x84, 0x1a, 0xae, 0x08, 0xd1, 0x64, 0xa2, 0x21, 0xce,
    0x27, 0x62, 0xa2, 0x89, 0x5e, 0x95, 0x7b, 0xe9, 0xe1, 0xe0, 0xad, 0xa8,
    0x42, 0xb7, 0x6f, 0x6c, 0xad, 0xd4, 0x11, 0x03, 0x6b, 0x98, 0xdb, 0xb7,
    0x1a, 0xb4, 0x40, 0x44, 0xf2, 0xc6, 0x35, 0x14, 0x08, 0x77, 0xfd, 0xe1,
    0x1d, 0xd5, 0x5c, 0x4c, 0xe6, 0xac, 0x64, 0xb9, 0x9d, 0x45, 0xc8, 0xe2,
    0xef, 0x6f, 0x87, 0x94, 0x91, 0x39, 0x2c, 0x61, 0xee, 0xe5, 0xd7, 0x75,
    0x38, 0x39, 0x77, 0x7f, 0x3a, 0x61, 0xe2, 0xcb, 0x9b, 0x31, 0x95, 0x24,
    0xdd, 0xdd, 0xff, 0x6e, 0xde, 0x82, 0x18, 0xc1, 0xf6, 0xfd, 0x1d, 0x93,
    0x60, 0xbd, 0xdc, 0xcb, 0xfb, 0x7b, 0xd1, 0x5f, 0xd8, 0x8d, 0x08, 0xe2,
    0xa4, 0xd8, 0xba, 0xdb, 0xed, 0x75, 0x2b, 0xa2, 0xd8, 0xfe, 0xd6, 0x9d,
    0xec, 0x5b, 0x2f, 0xcd, 0xf0, 0x7c, 0xcc, 0x7d, 0x69, 0xde, 0xbb, 0x73,
    0xc6, 0x6c, 0xd0, 0x46, 0xd7, 0xbb, 0x67, 0x67, 0x4c, 0x09, 0x5d, 0xff,
    0xaf, 0x42, 0x75, 0x3d, 0x99, 0x7b, 0x77, 0x73, 0x24, 0xf4, 0xbf, 0xbb,
    0x57, 0xc5, 0xfc, 0xd0, 0x77, 0xff, 0xd9, 0x61, 0xe2, 0xff, 0xd5, 0x6d,
    0x64, 0x08, 0xee, 0x7a, 0xef, 0x7e, 0xff, 0x4c, 0xdc, 0xeb, 0xef, 0xb7,
    0xe1, 0x84, 0x73, 0x92, 0x3f, 0x45, 0x85, 0xdd, 0xee, 0x7f, 0xba, 0xca,
    0xe8, 0x99, 0xde, 0x27, 0xef, 0x48, 0x7f, 0xf3, 0xfa, 0x7f, 0xf4, 0x24,
    0x81, 0x43, 0x8f, 0xd9, 0x55, 0x98, 0xba, 0xd8, 0xd7, 0xcf, 0x8c, 0xea,
    0x4c, 0xf8, 0xdb, 0x76, 0x57, 0x80, 0xe1, 0x92, 0x74, 0x09, 0xfb, 0xd5,
    0xde, 0xc2, 0x77, 0x8e, 0x3f, 0x61, 0xc9, 0x40, 0x0c, 0xde, 0xe5, 0xf7,
    0x0b, 0x04, 0x3f, 0xf6, 0x7b, 0x7b, 0x5f, 0x4d, 0x02, 0xf2, 0xff, 0xd5,
    0x7d, 0x5e, 0xac, 0xb3, 0xdf, 0x3b, 0x67, 0xf0, 0xf4, 0x8d, 0x3b, 0xd3,
    0xd0, 0x0f, 0xb7, 0xff, 0xf7, 0x64, 0xe9, 0x26, 0x9d, 0xdf, 0xf6, 0x42,
    0xa8, 0xb5, 0x77, 0xfb, 0x26, 0xb6, 0xea, 0x09, 0x6b, 0xeb, 0xd7, 0xe8,
    0x8a, 0xce, 0xf7, 0xfb, 0x2e, 0xfd, 0xff, 0xe3, 0xfe, 0xdf, 0x6e, 0x54,
    0xb9, 0xed, 0x92, 0xaf, 0x27, 0xea, 0x05, 0x8c, 0x37, 0x7b, 0x3b, 0xfe,
    0xca, 0x50, 0x7f, 0xda, 0x99, 0xcd, 0x31, 0xaa, 0x5e, 0xc0, 0xd9, 0x77,
    0xf6, 0x1c, 0x54, 0x0d, 0xdd, 0xff, 0x97, 0x83, 0xc2, 0x8a, 0xe9, 0xbf,
    0x83, 0xbe, 0x03, 0xb8, 0x3d, 0xfd, 0x3e, 0x83, 0xf0, 0x66, 0x08, 0xef,
    0xee, 0x1b, 0xe2, 0x48, 0x9c, 0xfe, 0x7b, 0xdd, 0x4d, 0x4c, 0xd2, 0x33,
    0x9f, 0x05, 0x6e, 0xd3, 0xbd, 0x4e, 0xa7, 0xba, 0xba, 0x18, 0xcc, 0xf9,
    0xf8, 0x70, 0xa5, 0x7e, 0x5b, 0x97, 0xfb, 0x9f, 0x5b, 0xe4, 0x84, 0xb8,
    0x73, 0xda, 0xd6, 0x69, 0xd4, 0x7f, 0x75, 0xcf, 0x18, 0x0a, 0x54, 0xd0,
    0xf7, 0xab, 0xd3, 0xfa, 0xd2, 0xec, 0xe3, 0x7b, 0x13, 0x59, 0x0c, 0xf2,
    0xce, 0x9d, 0x1f, 0x9c, 0x82, 0x72, 0xfb, 0x94, 0xcc, 0x6e, 0xd7, 0x18,
    0xfb, 0x7b, 0x25, 0xe9, 0xb3, 0x49, 0x0a, 0xa3, 0xf6, 0x47, 0x43, 0x18,
    0xf4, 0xfb, 0xed, 0xfd, 0x65, 0xf4, 0xdb, 0xd5, 0x05, 0xbc, 0x3f, 0xbb,
    0xeb, 0xaf, 0xbb, 0x36, 0xeb, 0x92, 0x14, 0xa9, 0x67, 0x9f, 0xef, 0xc5,
    0xd0, 0xc2, 0x64, 0xb2, 0xec, 0x5f, 0xc1, 0xf1, 0xaa, 0xae, 0xf7, 0xfd,
    0x0f, 0xa7, 0x87, 0xb3, 0xde, 0x6f, 0x1f, 0xe3, 0xed, 0x1f, 0x76, 0xf7,
    0x38, 0x7b, 0xde, 0x3b, 0xf9, 0x68, 0x5e, 0x24, 0x82, 0xee, 0xfc, 0x21,
    0x01, 0x1d, 0x54, 0x5e, 0x9e, 0xf5, 0x88, 0x14, 0x3e, 0xfe, 0xad, 0x8e,
    0x1c, 0x20, 0x18, 0x67, 0x1e, 0x7f, 0xb7, 0x02, 0x56, 0x6f, 0xc5, 0xf7,
    0x16, 0x51, 0x84, 0x95, 0x98, 0xab, 0x3f, 0x62, 0x90, 0xde, 0xe1, 0xfd,
    0xfb, 0xee, 0xa1, 0x40, 0x3b, 0xa0, 0x5e, 0xe7, 0xdb, 0x5c, 0x3f, 0x1e,
    0x3f, 0x66, 0xc5, 0xd9, 0x7b, 0xb3, 0xef, 0xbf, 0x33, 0x14, 0x4c, 0x00,
    0x0c, 0x43, 0xb0, 0x73, 0xff, 0xff, 0xff, 0xff, 0xff, 0xff, 0xff, 0xff,
    0xff, 0xff, 0xff, 0xff, 0xff, 0xff, 0xff, 0xff, 0x00, 0x00, 0x00, 0x00,
    0x00, 0x00, 0x00, 0x00, 0x00, 0x00, 0x00, 0x00, 0x00, 0x00, 0x06, 0x00,
    0x08, 0x00, 0x04, 0x00, 0x06, 0x00, 0x00, 0x00, 0x04, 0x00, 0x00, 0x00,
    0x74, 0x01, 0x00, 0x00, 0x43, 0x4f, 0x50, 0x31, 0x01, 0x00, 0x10, 0x00,
    0x08, 0x30, 0x00, 0x10, 0x00, 0x00, 0x06, 0x10, 0x05, 0x00, 0x00, 0x00,
    0x05, 0x00, 0x00, 0x00, 0x05, 0x00, 0x00, 0x00, 0x02, 0x00, 0x55, 0x00,
    0x23, 0x01, 0x00, 0x00, 0x30, 0x01, 0x00, 0x00, 0x30, 0x40, 0x00, 0x00,
    0xa0, 0x00, 0x00, 0x00, 0x31, 0x01, 0x02, 0x00, 0x31, 0x40, 0x00, 0x00,
    0x00, 0x00, 0x00, 0x00, 0x32, 0x40, 0x00, 0x00, 0xd0, 0x21, 0x00, 0x00,
    0x10, 0x00, 0x00, 0x00, 0x0f, 0x01, 0x01, 0x00, 0x00, 0x40, 0x00, 0x00,
    0x00, 0x00, 0x00, 0x00, 0x01, 0x40, 0x00, 0x00, 0x00, 0x00, 0x00, 0x00,
    0x02, 0x40, 0x00, 0x00, 0x00, 0x00, 0x00, 0x00, 0x03, 0x40, 0x00, 0x00,
    0x00, 0x00, 0x00, 0x00, 0x0b, 0x01, 0x00, 0x00, 0x0c, 0x01, 0x00, 0x00,
    0x0a, 0x01, 0x27, 0x00, 0x04, 0x01, 0x1f, 0x00, 0x06, 0x40, 0x00, 0x00,
    0x02, 0x00, 0x00, 0x00, 0x05, 0x40, 0x00, 0x00, 0x00, 0x0a, 0x00, 0x00,
    0x04, 0x40, 0x00, 0x00, 0x40, 0x00, 0x00, 0x00, 0x09, 0x01, 0x00, 0x00,
    0x05, 0x01, 0x05, 0x00, 0x07, 0x01, 0x02, 0x00, 0x00, 0x01, 0x03, 0x00,
    0x01, 0x01, 0x03, 0x00, 0x03, 0x01, 0x02, 0x00, 0x02, 0x01, 0x02, 0x00,
    0x1f, 0x01, 0x01, 0x00, 0x10, 0x40, 0x00, 0x00, 0x10, 0x0a, 0x00, 0x00,
    0x11, 0x40, 0x00, 0x00, 0x00, 0x00, 0x00, 0x00, 0x12, 0x40, 0x00, 0x00,
    0x00, 0x00, 0x00, 0x00, 0x13, 0x40, 0x00, 0x00, 0x00, 0x00, 0x00, 0x00,
    0x1b, 0x01, 0x03, 0x00, 0x1c, 0x01, 0x03, 0x00, 0x1a, 0x01, 0x51, 0x00,
    0x12, 0x01, 0x03, 0x00, 0x11, 0x01, 0x51, 0x00, 0x13, 0x01, 0x0f, 0x00,
    0x16, 0x40, 0x00, 0x00, 0x02, 0x00, 0x00, 0x00, 0x15, 0x40, 0x00, 0x00,
    0x40, 0x0a, 0x00, 0x00, 0x14, 0x40, 0x00, 0x00, 0x20, 0x00, 0x00, 0x00,
    0x18, 0x01, 0x00, 0x00, 0x14, 0x01, 0x03, 0x80, 0x21, 0x01, 0x03, 0x00,
    0x20, 0x01, 0x03, 0x00, 0x22, 0x01, 0x04, 0x00, 0x28, 0x01, 0x02, 0x00,
    0x20, 0x40, 0x00, 0x00, 0xa0, 0x00, 0x00, 0x00, 0x21, 0x40, 0x00, 0x00,
    0x30, 0x21, 0x00, 0x00, 0x29, 0x01, 0x02, 0x00, 0x22, 0x40, 0x00, 0x00,
    0x00, 0x00, 0x00, 0x00, 0x23, 0x40, 0x00, 0x00, 0xa0, 0x00, 0x00, 0x00,
    0x25, 0x01, 0x00, 0x00, 0x26, 0x01, 0x00, 0x80, 0x27, 0x01, 0xff, 0x7f,
    0x16, 0x01, 0x03, 0x00, 0x15, 0x01, 0x1f, 0x00, 0x17, 0x01, 0x0f, 0x00,
    0x0d, 0x01, 0x0a, 0x00, 0x2d, 0x01, 0x1a, 0x00, 0x24, 0x01, 0x01, 0x00,
    0x2f, 0x01, 0x00, 0x00, 0x11, 0x00, 0x00, 0x00, 0x02, 0x00, 0x00, 0x00,
    0x00, 0x00, 0xff, 0xff, 0x00, 0x00, 0x00, 0x00, 0x00, 0x00, 0x00, 0x00,
    0x04, 0x00, 0x04, 0x00, 0x04, 0x00, 0x00, 0x00, 0x01, 0x00, 0x00, 0x00,
    0x14, 0x00, 0x00, 0x00, 0x00, 0x00, 0x0e, 0x00, 0x18, 0x00, 0x14, 0x00,
    0x10, 0x00, 0x0c, 0x00, 0x08, 0x00, 0x04, 0x00, 0x0e, 0x00, 0x00, 0x00,
    0x1c, 0x04, 0x00, 0x00, 0x10, 0x00, 0x00, 0x00, 0x78, 0x00, 0x00, 0x00,
    0x7c, 0x00, 0x00, 0x00, 0x84, 0x00, 0x00, 0x00, 0x01, 0x00, 0x00, 0x00,
    0x1c, 0x00, 0x00, 0x00, 0x00, 0x00, 0x16, 0x00, 0x18, 0x00, 0x00, 0x00,
    0x14, 0x00, 0x10, 0x00, 0x00, 0x00, 0x00, 0x00, 0x08, 0x00, 0x00, 0x00,
    0x04, 0x00, 0x0c, 0x00, 0x16, 0x00, 0x00, 0x00, 0x14, 0x00, 0x00, 0x00,
    0x14, 0x00, 0x00, 0x00, 0x18, 0x00, 0x00, 0x00, 0x18, 0x00, 0x00, 0x00,
    0x1c, 0x00, 0x00, 0x00, 0x00, 0x00, 0x00, 0x00, 0x03, 0x00, 0x00, 0x00,
    0x01, 0x04, 0x01, 0x00, 0x00, 0x00, 0x00, 0x00, 0x01, 0x00, 0x00, 0x00,
    0x05, 0x00, 0x00, 0x00, 0x06, 0x00, 0x00, 0x00, 0x00, 0x00, 0x00, 0x00,
    0x01, 0x00, 0x00, 0x00, 0x02, 0x00, 0x00, 0x00, 0x03, 0x00, 0x00, 0x00,
    0x04, 0x00, 0x00, 0x00, 0x06, 0x00, 0x00, 0x00, 0x01, 0x00, 0x00, 0x00,
    0x05, 0x00, 0x00, 0x00, 0x02, 0x00, 0x00, 0x00, 0x06, 0x00, 0x00, 0x00,
    0x04, 0x00, 0x00, 0x00, 0x07, 0x00, 0x00, 0x00, 0x4c, 0x03, 0x00, 0x00,
    0x0c, 0x03, 0x00, 0x00, 0xd8, 0x02, 0x00, 0x00, 0x94, 0x02, 0x00, 0x00,
    0xd0, 0x01, 0x00, 0x00, 0x68, 0x00, 0x00, 0x00, 0x04, 0x00, 0x00, 0x00,
    0x48, 0xfd, 0xff, 0xff, 0x0c, 0x00, 0x00, 0x00, 0x00, 0x00, 0x00, 0x02,
    0x4c, 0x00, 0x00, 0x00, 0x43, 0x00, 0x00, 0x00, 0x73, 0x74, 0x72, 0x65,
    0x61, 0x6d, 0x61, 0x62, 0x6c, 0x65, 0x5f, 0x6d, 0x6f, 0x64, 0x65, 0x6c,
    0x5f, 0x31, 0x30, 0x2f, 0x75, 0x6e, 0x65, 0x74, 0x5f, 0x30, 0x2f, 0x64,
    0x65, 0x63, 0x6f, 0x64, 0x65, 0x72, 0x5f, 0x31, 0x2f, 0x63, 0x6f, 0x6e,
    0x76, 0x32, 0x64, 0x74, 0x72, 0x61, 0x6e, 0x73, 0x70, 0x6f, 0x73, 0x65,
    0x5f, 0x34, 0x78, 0x34, 0x2f, 0x63, 0x6f, 0x6e, 0x76, 0x2f, 0x73, 0x74,
    0x61, 0x63, 0x6b, 0x00, 0x01, 0x00, 0x00, 0x00, 0x04, 0x00, 0x00, 0x00,
    0xaa, 0xfe, 0xff, 0xff, 0x10, 0x00, 0x00, 0x00, 0x48, 0x00, 0x00, 0x00,
    0x00, 0x00, 0x00, 0x07, 0x30, 0x01, 0x00, 0x00, 0x9c, 0xfe, 0xff, 0xff,
    0x10, 0x00, 0x00, 0x00, 0x1c, 0x00, 0x00, 0x00, 0x20, 0x00, 0x00, 0x00,
    0x24, 0x00, 0x00, 0x00, 0x01, 0x00, 0x00, 0x00, 0x00, 0x00, 0x00, 0x00,
    0x00, 0x00, 0x00, 0x00, 0x00, 0x00, 0x00, 0x00, 0x01, 0x00, 0x00, 0x00,
    0xea, 0xa4, 0x78, 0x3c, 0x01, 0x00, 0x00, 0x00, 0x20, 0x84, 0xd2, 0x43,
    0x01, 0x00, 0x00, 0x00, 0xf9, 0xa2, 0xf8, 0xc3, 0xe9, 0x00, 0x00, 0x00,
    0x73, 0x74, 0x72, 0x65, 0x61, 0x6d, 0x61, 0x62, 0x6c, 0x65, 0x5f, 0x6d,
    0x6f, 0x64, 0x65, 0x6c, 0x5f, 0x31, 0x30, 0x2f, 0x75, 0x6e, 0x65, 0x74,
    0x5f, 0x30, 0x2f, 0x64, 0x65, 0x63, 0x6f, 0x64, 0x65, 0x72, 0x5f, 0x31,
    0x2f, 0x63, 0x6f, 0x6e, 0x76, 0x32, 0x64, 0x74, 0x72, 0x61, 0x6e, 0x73,
    0x70, 0x6f, 0x73, 0x65, 0x5f, 0x34, 0x78, 0x34, 0x2f, 0x63, 0x6f, 0x6e,
    0x76, 0x2f, 0x42, 0x69, 0x61, 0x73, 0x41, 0x64, 0x64, 0x3b, 0x73, 0x74,
    0x72, 0x65, 0x61, 0x6d, 0x61, 0x62, 0x6c, 0x65, 0x5f, 0x6d, 0x6f, 0x64,
    0x65, 0x6c, 0x5f, 0x31, 0x30, 0x2f, 0x75, 0x6e, 0x65, 0x74, 0x5f, 0x30,
    0x2f, 0x64, 0x65, 0x63, 0x6f, 0x64, 0x65, 0x72, 0x5f, 0x31, 0x2f, 0x63,
    0x6f, 0x6e, 0x76, 0x32, 0x64, 0x74, 0x72, 0x61, 0x6e, 0x73, 0x70, 0x6f,
    0x73, 0x65, 0x5f, 0x34, 0x78, 0x34, 0x2f, 0x63, 0x6f, 0x6e, 0x76, 0x2f,
    0x63, 0x6f, 0x6e, 0x76, 0x32, 0x64, 0x5f, 0x74, 0x72, 0x61, 0x6e, 0x73,
    0x70, 0x6f, 0x73, 0x65, 0x3b, 0x73, 0x74, 0x72, 0x65, 0x61, 0x6d, 0x61,
    0x62, 0x6c, 0x65, 0x5f, 0x6d, 0x6f, 0x64, 0x65, 0x6c, 0x5f, 0x31, 0x30,
    0x2f, 0x75, 0x6e, 0x65, 0x74, 0x5f, 0x30, 0x2f, 0x64, 0x65, 0x63, 0x6f,
    0x64, 0x65, 0x72, 0x5f, 0x31, 0x2f, 0x63, 0x6f, 0x6e, 0x76, 0x32, 0x64,
    0x74, 0x72, 0x61, 0x6e, 0x73, 0x70, 0x6f, 0x73, 0x65, 0x5f, 0x34, 0x78,
    0x34, 0x2f, 0x63, 0x6f, 0x6e, 0x76, 0x2f, 0x42, 0x69, 0x61, 0x73, 0x41,
    0x64, 0x64, 0x2f, 0x52, 0x65, 0x61, 0x64, 0x56, 0x61, 0x72, 0x69, 0x61,
    0x62, 0x6c, 0x65, 0x4f, 0x70, 0x00, 0x00, 0x00, 0x04, 0x00, 0x00, 0x00,
    0x01, 0x00, 0x00, 0x00, 0x04, 0x00, 0x00, 0x00, 0x52, 0x00, 0x00, 0x00,
    0x10, 0x00, 0x00, 0x00, 0x00, 0x00, 0x0e, 0x00, 0x14, 0x00, 0x10, 0x00,
    0x0f, 0x00, 0x00, 0x00, 0x08, 0x00, 0x04, 0x00, 0x0e, 0x00, 0x00, 0x00,
    0x1c, 0x00, 0x00, 0x00, 0x50, 0x00, 0x00, 0x00, 0x00, 0x00, 0x00, 0x07,
    0x9c, 0x00, 0x00, 0x00, 0x0c, 0x00, 0x14, 0x00, 0x10, 0x00, 0x0c, 0x00,
    0x08, 0x00, 0x04, 0x00, 0x0c, 0x00, 0x00, 0x00, 0x10, 0x00, 0x00, 0x00,
    0x18, 0x00, 0x00, 0x00, 0x1c, 0x00, 0x00, 0x00, 0x20, 0x00, 0x00, 0x00,
    0x01, 0x00, 0x00, 0x00, 0x00, 0x00, 0x00, 0x00, 0x00, 0x00, 0x00, 0x00,
    0x01, 0x00, 0x00, 0x00, 0x74, 0xe9, 0x8c, 0x3c, 0x01, 0x00, 0x00, 0x00,
    0x5a, 0xe8, 0x0c, 0x44, 0x01, 0x00, 0x00, 0x00, 0xb3, 0xd2, 0x44, 0xc3,
    0x4d, 0x00, 0x00, 0x00, 0x73, 0x74, 0x72, 0x65, 0x61, 0x6d, 0x61, 0x62,
    0x6c, 0x65, 0x5f, 0x6d, 0x6f, 0x64, 0x65, 0x6c, 0x5f, 0x31, 0x30, 0x2f,
    0x75, 0x6e, 0x65, 0x74, 0x5f, 0x30, 0x2f, 0x64, 0x65, 0x63, 0x6f, 0x64,
    0x65, 0x72, 0x5f, 0x31, 0x2f, 0x63, 0x6f, 0x6e, 0x76, 0x32, 0x64, 0x74,
    0x72, 0x61, 0x6e, 0x73, 0x70, 0x6f, 0x73, 0x65, 0x5f, 0x34, 0x78, 0x34,
    0x2f, 0x61, 0x63, 0x74, 0x69, 0x76, 0x61, 0x74, 0x69, 0x6f, 0x6e, 0x2f,
    0x4c, 0x65, 0x61, 0x6b, 0x79, 0x52, 0x65, 0x6c, 0x75, 0x00, 0x00, 0x00,
    0x04, 0x00, 0x00, 0x00, 0x01, 0x00, 0x00, 0x00, 0x01, 0x00, 0x00, 0x00,
    0x28, 0x00, 0x00, 0x00, 0x20, 0x00, 0x00, 0x00, 0xcc, 0xff, 0xff, 0xff,
    0x0c, 0x00, 0x00, 0x00, 0x00, 0x00, 0x00, 0x03, 0x20, 0x00, 0x00, 0x00,
    0x15, 0x00, 0x00, 0x00, 0x5f, 0x73, 0x70, 0x6c, 0x69, 0x74, 0x5f, 0x31,
    0x5f, 0x73, 0x63, 0x72, 0x61, 0x74, 0x63, 0x68, 0x5f, 0x66, 0x61, 0x73,
    0x74, 0x00, 0x00, 0x00, 0x01, 0x00, 0x00, 0x00, 0xd0, 0x21, 0x00, 0x00,
    0x0c, 0x00, 0x10, 0x00, 0x0c, 0x00, 0x0b, 0x00, 0x00, 0x00, 0x04, 0x00,
    0x0c, 0x00, 0x00, 0x00, 0x0c, 0x00, 0x00, 0x00, 0x00, 0x00, 0x00, 0x03,
    0x1c, 0x00, 0x00, 0x00, 0x10, 0x00, 0x00, 0x00, 0x5f, 0x73, 0x70, 0x6c,
    0x69, 0x74, 0x5f, 0x31, 0x5f, 0x73, 0x63, 0x72, 0x61, 0x74, 0x63, 0x68,
    0x00, 0x00, 0x00, 0x00, 0x01, 0x00, 0x00, 0x00, 0x10, 0x33, 0x00, 0x00,
    0xd0, 0xff, 0xff, 0xff, 0x10, 0x00, 0x00, 0x00, 0x02, 0x00, 0x00, 0x00,
    0x00, 0x00, 0x00, 0x03, 0x18, 0x00, 0x00, 0x00, 0x0e, 0x00, 0x00, 0x00,
    0x5f, 0x73, 0x70, 0x6c, 0x69, 0x74, 0x5f, 0x31, 0x5f, 0x66, 0x6c, 0x61,
    0x73, 0x68, 0x00, 0x00, 0x01, 0x00, 0x00, 0x00, 0x70, 0x22, 0x00, 0x00,
    0x0c, 0x00, 0x14, 0x00, 0x10, 0x00, 0x0f, 0x00, 0x08, 0x00, 0x04, 0x00,
    0x0c, 0x00, 0x00, 0x00, 0x10, 0x00, 0x00, 0x00, 0x01, 0x00, 0x00, 0x00,
    0x00, 0x00, 0x00, 0x03, 0x20, 0x00, 0x00, 0x00, 0x17, 0x00, 0x00, 0x00,
    0x5f, 0x73, 0x70, 0x6c, 0x69, 0x74, 0x5f, 0x31, 0x5f, 0x63, 0x6f, 0x6d,
    0x6d, 0x61, 0x6e, 0x64, 0x5f, 0x73, 0x74, 0x72, 0x65, 0x61, 0x6d, 0x00,
    0x01, 0x00, 0x00, 0x00, 0x74, 0x01, 0x00, 0x00, 0x00, 0x00, 0x00, 0x00,
    0x00, 0x00, 0x00, 0x00, 0x15, 0x00, 0x00, 0x00, 0x56, 0x65, 0x6c, 0x61,
    0x20, 0x33, 0x2e, 0x31, 0x32, 0x2e, 0x30, 0x20, 0x4f, 0x70, 0x74, 0x69,
    0x6d, 0x69, 0x73, 0x65, 0x64, 0x00, 0x00, 0x00, 0x01, 0x00, 0x00, 0x00,
    0x10, 0x00, 0x00, 0x00, 0x0c, 0x00, 0x10, 0x00, 0x0f, 0x00, 0x04, 0x00,
    0x00, 0x00, 0x08, 0x00, 0x0c, 0x00, 0x00, 0x00, 0x0c, 0x00, 0x00, 0x00,
    0x20, 0x00, 0x00, 0x00, 0x00, 0x00, 0x00, 0x20, 0x07, 0x00, 0x00, 0x00,
    0x65, 0x74, 0x68, 0x6f, 0x73, 0x2d, 0x75, 0x00
  };
  unsigned int transpose_conv3_vela_tflite_len = 10688;
#endif  